, 426747
. 329458
the 134997
and 97003
in 92435
und 85917
to 79090
die 78066
of 74224
a 73529
that 59876
i 55532
der 51622
sie 51558
it 49746
das 49539
ich 48626
&quot; 48430
es 47772
you 45836
ist 44946
is 42644
we 42093
wir 40979
zu 37304
&apos;s 36495
so 35984
was 33248
this 32255
? 27866
ein 25752
-- 24561
von 24102
an 24027
eine 23758
dass 23322
: 22773
nicht 22663
den 22454
they 21072
on 20019
mit 19588
for 18958
er 18686
are 18392
wie 17955
auf 17416
have 17311
what 17112
but 16818
man 16301
with 15954
can 15363
sich 15349
all 15016
sind 14760
aber 14644
für 14588
haben 14374
wenn 14346
als 14085
&apos;t 14069
as 13894
at 13808
be 13709
about 13691
there 13609
um 13381
also 13270
war 12530
diese 12129
do 11772
one 11765
not 11614
-@@ 11243
im 11061
my 10942
&apos;re 10919
ver@@ 10774
people 10666
dem 10306
if 10245
he 10223
like 10177
or 10082
from 10069
einen 9761
er@@ 9537
an@@ 9511
des 9497
uns 9359
now 9323
these 9191
be@@ 9058
just 8967
können 8962
me 8833
oder 8589
werden 8559
our 8545
hier 8439
re@@ 8438
s@@ 8390
aus 8345
ge@@ 8287
because 8220
when 8219
hat 8207
very 8193
un@@ 7996
über 7940
out 7922
how 7777
s 7763
by 7730
einer 7699
– 7632
auch 7557
te 7465
up 7439
know 7404
einem 7386
them 7302
kann 7300
going 7185
dann 7085
sehr 7015
us 6951
which 6912
here 6843
more 6808
see 6794
wird 6791
k@@ 6758
had 6746
nur 6731
think 6728
ing 6621
t@@ 6537
ed 6523
gibt 6442
who 6406
your 6337
menschen 6320
ten 6305
really 6292
ihnen 6240
will 6203
get 6195
their 6187
en@@ 6145
sehen 6145
then 6127
were 6122
mich 6119
e@@ 6098
would 6084
a@@ 6082
in@@ 6061
ab@@ 6039
sein 5997
&apos;ve 5921
d@@ 5858
world 5856
g@@ 5845
time 5667
dieser 5648
some 5643
etwas 5610
&apos;m 5573
aus@@ 5567
t 5503
ein@@ 5478
nach 5451
noch 5433
way 5389
has 5372
habe 5352
don 5348
actually 5304
b@@ 5301
en 5281
o@@ 5244
am 5192
into 5183
go 5107
mir 5094
ti@@ 5093
where 5052
; 5038
vor 4996
things 4972
i@@ 4953
bei 4930
e 4900
years 4871
alle 4829
mehr 4822
welt 4817
- 4747
p@@ 4712
c@@ 4710
other 4689
no 4617
ch@@ 4605
well 4587
could 4503
want 4449
ihre 4431
leben 4425
machen 4421
y 4419
li@@ 4386
de@@ 4369
meine 4369
h@@ 4332
da 4332
zum 4321
make 4320
di@@ 4309
m@@ 4306
weil 4290
sch@@ 4286
r@@ 4277
right 4270
been 4255
said 4254
new 4229
ma@@ 4187
dies 4181
g 4180
m 4178
nun 4176
z@@ 4175
wurde 4154
wirklich 4137
gen 4119
she 4090
u@@ 4076
art 4062
dieses 4061
f@@ 4056
something 4040
kind 4011
st@@ 3990
auf@@ 3973
al@@ 3969
than 3935
se@@ 3912
durch 3889
al 3876
ung 3867
first 3860
two 3831
le@@ 3801
those 3793
immer 3776
ar@@ 3764
his 3753
look 3752
zu@@ 3749
tun 3745
unsere 3699
thing 3693
zeit 3691
ri@@ 3678
little 3658
vor@@ 3629
jetzt 3620
ihr 3612
got 3599
end 3594
&apos; 3591
wissen 3589
de 3566
y@@ 3555
much 3519
o 3518
l@@ 3496
um@@ 3489
life 3488
hatte 3467
back 3466
work 3435
say 3433
d 3425
ent@@ 3409
ter 3382
her 3377
leute 3376
most 3374
n@@ 3360
viel 3359
over 3358
keine 3352
viele 3342
ge 3333
über@@ 3306
diesem 3259
se 3253
problem 3246
only 3237
ted 3229
ro@@ 3227
sagen 3220
eines 3206
du 3197
even 3192
denn 3186
ts 3174
take 3162
sagte 3149
mal 3127
dinge 3121
able 3102
system 3078
many 3073
diesen 3070
zwei 3053
einfach 3042
waren 3034
el@@ 3027
did 3007
or@@ 2998
need 2977
bin 2969
alles 2963
jahren 2959
po@@ 2956
wo 2943
good 2940
co@@ 2936
müssen 2924
lot 2911
andere 2902
le 2887
around 2872
let 2858
why 2845
down 2828
ungen 2815
come 2807
gehen 2807
on@@ 2804
v@@ 2798
use 2798
anderen 2794
mein 2790
geht 2785
w@@ 2773
bi@@ 2772
&apos;ll 2768
würde 2760
damit 2740
k 2739
different 2691
bis 2691
every 2688
ie 2666
through 2665
zur 2665
vielleicht 2659
si@@ 2652
selbst 2615
! 2613
day 2610
pro@@ 2606
sten 2601
lo@@ 2580
gut 2570
ert 2561
at@@ 2557
p 2549
ra@@ 2537
same 2536
th@@ 2510
as@@ 2500
am@@ 2499
being 2498
put 2493
its 2492
her@@ 2477
land 2475
st 2473
jahre 2472
la@@ 2430
l 2411
ds 2410
kommen 2406
doing 2402
ers 2394
ger 2394
ni@@ 2384
ische 2358
ende 2348
ta@@ 2342
es@@ 2341
mi@@ 2324
con@@ 2314
eren 2307
heute 2307
ischen 2305
geben 2302
me@@ 2300
men 2295
three 2280
te@@ 2271
muss 2266
ja 2254
bo@@ 2253
warum 2248
geschichte 2244
called 2238
schon 2237
talk 2208
any 2207
10 2201
dis@@ 2199
einige 2190
j@@ 2185
macht 2176
ck@@ 2168
ber@@ 2163
made 2162
lassen 2158
percent 2157
&apos;d 2144
ke 2144
n 2134
b 2131
person 2128
möchte 2121
ly 2120
wieder 2116
ch 2114
tatsächlich 2113
ne@@ 2113
h 2103
ad@@ 2095
he@@ 2091
today 2084
ated 2083
great 2078
after 2071
sp@@ 2069
gt 2065
is@@ 2050
mo@@ 2042
big 2041
liche 2037
denken 2036
par@@ 2019
ation 2018
kinder 2017
tion 2014
davon 2013
ha@@ 2012
tell 2005
dort 1998
ck 1981
it@@ 1973
human 1970
year 1969
ganz 1964
ve 1960
vi@@ 1960
c 1960
unter@@ 1959
ging 1954
op@@ 1945
genau 1937
ex@@ 1935
hatten 1934
last 1928
ter@@ 1925
seine 1923
mar@@ 1923
drei 1918
fact 1917
another 1916
ger@@ 1915
find 1912
ken 1896
sa@@ 1887
own 1875
ins 1875
form 1867
ob 1865
darüber 1862
chen 1861
pe@@ 1857
idea 1856
könnte 1855
lichen 1847
ihn 1845
lich 1840
paar 1836
ent 1835
ei@@ 1833
didn 1830
change 1830
ate 1828
give 1827
fe@@ 1826
before 1825
gi@@ 1817
jahr 1817
sh@@ 1815
der@@ 1812
den@@ 1808
ur@@ 1806
ac@@ 1803
wollen 1802
do@@ 1802
nehmen 1802
went 1800
should 1796
to@@ 1795
20 1794
teil 1794
r 1789
started 1785
werde 1780
weise 1779
ern 1778
thought 1776
ste 1772
design 1770
ko@@ 1764
tions 1762
ting 1761
tag 1760
pi@@ 1754
show 1745
story 1743
au@@ 1743
off 1736
meiner 1732
sti@@ 1722
ten@@ 1719
ihren 1714
com@@ 1710
f 1709
finden 1704
hin@@ 1700
3@@ 1699
weg 1696
wurden 1695
sen@@ 1693
ding 1688
never 1688
better 1685
start 1685
stellen 1685
course 1683
again 1680
während 1679
important 1678
still 1674
pa@@ 1673
denen 1671
kommt 1669
ste@@ 1668
ru@@ 1668
fi@@ 1664
frage 1654
moment 1645
jeder 1642
bu@@ 1642
gab 1640
sen 1636
per@@ 1636
im@@ 1635
ce 1634
zwischen 1632
su@@ 1632
him 1631
tet 1630
tra@@ 1628
does 1626
part 1621
denke 1620
water 1617
gemacht 1617
pre@@ 1615
next 1610
might 1610
dazu 1609
gen@@ 1608
ago 1603
beispiel 1602
each 1601
together 1598
place 1597
technology 1594
wäre 1593
used 1592
brain 1590
vom 1588
sondern 1585
ok 1580
unserer 1579
ho@@ 1572
sogar 1571
neue 1568
came 1568
okay 1566
no@@ 1563
bit 1563
tes 1559
thank 1559
ä@@ 1555
... 1553
sk@@ 1550
bringen 1547
mon@@ 1544
glaube 1543
doch 1541
computer 1540
da@@ 1539
ungs@@ 1537
kein 1536
unter 1532
ar 1530
x 1528
unser 1527
ale 1527
so@@ 1526
50 1524
nen 1524
man@@ 1523
ir@@ 1518
long 1517
qu@@ 1512
for@@ 1512
mu@@ 1510
natürlich 1507
na@@ 1504
mit@@ 1502
ks 1501
est 1499
zeigen 1498
em 1494
kon@@ 1492
arbeit 1491
el 1491
fa@@ 1487
car@@ 1485
arbeiten 1483
ihrer 1483
too 1483
weiter 1481
ohne 1481
einmal 1480
.@@ 1480
fall 1479
between 1479
million 1479
tr@@ 1476
point 1475
hand 1473
school 1472
z 1471
few 1470
em@@ 1469
weiß 1468
gerade 1467
looking 1466
sieht 1463
ating 1461
oh 1460
hi@@ 1460
nie 1457
fen 1454
wa@@ 1453
war@@ 1450
nichts 1445
dafür 1443
children 1443
mean 1437
durch@@ 1424
würden 1418
30 1416
information 1411
try 1407
ben 1407
ö@@ 1406
sort 1403
ere 1402
du@@ 1398
maybe 1397
done 1396
ty 1391
prozent 1389
ine 1389
passiert 1381
zurück 1380
ever 1379
gra@@ 1377
verstehen 1377
erste 1377
sta@@ 1376
found 1374
ges 1373
less 1368
data 1366
ded 1363
ous 1363
erte 1362
whole 1361
love 1360
question 1359
vielen 1356
inter@@ 1356
schen 1354
doesn 1350
live 1349
cht 1348
red 1346
br@@ 1345
w 1342
zi@@ 1340
daran 1340
kt 1340
fragen 1338
light 1337
sprechen 1336
je@@ 1336
sc@@ 1334
bar 1333
sagt 1333
ersten 1332
gu@@ 1332
millionen 1329
example 1329
real 1329
may 1328
understand 1323
wanted 1318
ses 1318
bild 1314
four 1313
gel@@ 1306
idee 1306
konnte 1305
isch 1305
we@@ 1301
wei@@ 1299
ct 1297
dollar 1290
ganze 1287
große 1286
working 1286
old 1282
using 1281
age 1280
women 1280
letzten 1278
min@@ 1277
son 1276
dabei 1274
wer 1274
ic 1267
trying 1263
fast 1262
etwa 1260
ens 1259
city 1258
elle 1257
call 1256
bekommen 1255
us@@ 1255
welche 1254
könnten 1254
times 1253
mis@@ 1252
ze 1252
ben@@ 1251
wi@@ 1251
nach@@ 1251
away 1249
power 1248
internet 1243
wasser 1239
4@@ 1237
kids 1236
money 1233
et@@ 1233
seite 1233
ange@@ 1231
ction 1229
tive 1229
sollte 1228
ant 1226
everything 1222
kam 1222
100 1219
always 1217
ot@@ 1213
tri@@ 1211
ally 1210
believe 1207
space 1207
ons 1205
frauen 1204
il@@ 1204
geld 1201
feel 1201
all@@ 1196
five 1196
hand@@ 1195
sollten 1193
ziemlich 1192
2 1191
ak@@ 1190
bar@@ 1189
daten 1188
enden 1187
meisten 1186
ary 1185
wollte 1183
sache 1181
lei@@ 1180
ves 1180
country 1179
meinen 1172
kan@@ 1170
king 1169
help 1167
hal@@ 1167
men@@ 1163
ph@@ 1163
ser@@ 1162
tionen 1160
meinem 1159
lin@@ 1157
thinking 1155
ans 1151
essen 1148
jemand 1147
d-@@ 1141
number 1141
comes 1140
create 1138
wichtig 1136
ps 1135
food 1135
pri@@ 1134
ker 1133
ka@@ 1133
u 1133
zen 1132
dar@@ 1130
kleinen 1129
ms 1129
gesehen 1128
ü@@ 1127
took 1126
dr@@ 1126
gesch@@ 1126
technologie 1125
second 1125
stand 1125
tion@@ 1122
cken 1119
halten 1118
mann 1117
ol@@ 1117
ft 1116
str@@ 1116
ges@@ 1116
darauf 1115
energy 1114
5@@ 1108
vier 1108
video 1108
tu@@ 1107
science 1107
brauchen 1106
om@@ 1106
sense 1104
lernen 1104
th 1102
ellen 1102
means 1100
ul@@ 1096
eigentlich 1096
x@@ 1096
weniger 1094
zusammen 1094
making 1093
fo@@ 1092
ment 1089
wor@@ 1089
chte 1086
zusammen@@ 1083
china 1082
ff@@ 1081
future 1079
besser 1078
getting 1077
raum 1073
mer@@ 1073
ster@@ 1072
side 1071
become 1071
quite 1070
ster 1070
15 1068
enough 1067
tung 1067
best 1065
bri@@ 1065
dra@@ 1061
großen 1060
building 1060
small 1060
pl@@ 1059
ganzen 1057
says 1056
probably 1051
hei@@ 1047
menge 1045
bei@@ 1044
bedeutet 1043
los 1043
hen 1042
det 1041
dachte 1040
&#91; 1038
&#93; 1037
ability 1037
che 1037
home 1035
social 1032
tro@@ 1032
ag@@ 1031
eln 1031
half 1030
play 1029
without 1026
licher 1025
ihm 1022
tt@@ 1021
earth 1019
glauben 1019
zeigt 1018
tz@@ 1018
gr@@ 1016
unseren 1015
rei@@ 1015
kleine 1015
left 1014
cor@@ 1012
3 1012
body 1011
e-@@ 1011
stuff 1010
interesting 1009
kl@@ 1007
talking 1007
ihrem 1007
che@@ 1006
punkt 1005
har@@ 1005
chten 1004
ways 1002
dollars 997
gehirn 997
room 996
tic 995
lebens@@ 994
set 989
ties 988
schauen 986
versuchen 985
africa 985
coming 983
ble 982
re 982
star@@ 982
happened 981
alen 979
danke 978
line 976
jedes 976
gegen 974
ort 974
spielen 974
seen 973
ab 970
grund 969
ci@@ 968
frau 967
allen 966
6@@ 962
ja@@ 961
ll@@ 957
build 956
nein 953
trans@@ 951
führen 951
york 950
ies 950
7@@ 949
simple 949
ju@@ 949
global 948
jeden 947
ask 946
bes@@ 945
anything 944
ausge@@ 943
cted 940
licht 938
indem 938
ance 938
erung 936
goes 930
flo@@ 930
while 929
seit 928
and@@ 925
planet 924
project 924
8 924
beim 923
teilen 923
stra@@ 922
days 922
bauen 922
makes 920
pretty 920
nutzen 920
ca@@ 918
per 917
tan@@ 917
lives 917
erde 917
move 917
ali@@ 916
problems 916
zukunft 916
gesagt 913
cher 913
ne 913
case 912
such 912
health 912
tre@@ 911
told 911
go@@ 911
across 910
high 909
ell 908
5 908
schaffen 908
ors 908
gl@@ 907
ner 907
film 907
once 904
happen 903
ws 902
living 898
res@@ 897
bad 896
car 896
jo@@ 896
seiner 895
book 895
wer@@ 894
basically 894
keinen 893
wahrscheinlich 892
eigenen 891
sub@@ 891
1 890
ing@@ 890
erten 889
fünf 889
hin 888
hätte 888
4 888
else 885
the@@ 884
saw 884
sts 883
gs 883
gute 882
ones 881
stehen 879
imagine 878
yet 878
picture 877
test 876
später 876
job 875
8@@ 874
1@@ 874
ts@@ 872
countries 869
40 869
care 869
zurück@@ 868
happens 866
fl@@ 866
cy 865
ken@@ 865
iert 865
tig 865
ung@@ 860
sche 860
having 859
ku@@ 858
stellt 858
mind 857
business 856
tor@@ 855
stadt 855
family 855
neu@@ 855
heraus 854
arten 854
ings 854
jede 853
team 851
9@@ 851
hard 850
rate 850
zer@@ 849
cht@@ 847
experience 847
ma 846
setzen 846
super@@ 846
asked 842
ged 842
sure 842
des@@ 842
19@@ 841
later 841
lu@@ 840
nature 840
6 840
probleme 840
sah 839
ari@@ 839
young 839
schule 838
s-@@ 838
sicher 837
name 836
hö@@ 835
lange 834
kom@@ 834
ideas 832
stri@@ 832
energie 831
fu@@ 831
tigen 828
learn 827
anzu@@ 827
funktioniert 824
nu@@ 824
pro 823
ungefähr 823
20@@ 822
ke@@ 821
ver 821
lang 820
ful 819
wo@@ 818
ton 818
mor@@ 817
pen@@ 815
inside 815
et 813
pp@@ 813
pres@@ 813
hu@@ 812
welt@@ 811
cu@@ 810
richtig 810
än@@ 809
pu@@ 808
wenig 807
everybody 806
7 805
y-@@ 804
ga@@ 803
history 803
six 803
konnten 803
mutter 803
kte 802
ler 802
process 801
liches 800
top 800
over@@ 800
&amp; 799
helfen 798
rest 798
sur@@ 798
state 797
states 795
systems 795
reason 795
open 795
erzählen 795
child 795
ell@@ 794
buch 794
zwei@@ 793
kor@@ 793
saying 793
nothing 792
billion 791
tieren 791
ure 791
cks 791
lan@@ 790
both 790
single 790
ely 789
under@@ 788
sing 787
recht 785
oft 785
ches 783
heißt 782
neuen 782
körper 781
kten 781
within 780
genug 779
erst 778
whether 778
almost 777
liebe 777
schnell 776
bel@@ 775
sage 775
looks 774
far 772
ba@@ 772
dung 771
bring 770
cells 770
ity 769
möglich 768
tern 768
mm@@ 768
material 768
ars 766
tete 766
ideen 765
level 765
tige 764
weit 763
mil@@ 763
nächsten 763
music 763
tation 763
already 763
ry 762
els 761
hören 760
wrong 760
braucht 759
cancer 758
afrika 757
dan@@ 757
remember 756
gruppe 755
alt 755
keep 754
anders 754
gets 752
wunder@@ 752
% 752
unserem 751
ban@@ 750
bisschen 750
ber 750
house 750
under 750
gern 749
guy 748
mal@@ 747
true 747
ß@@ 746
einander 746
les 745
elt 745
sion 745
begann 745
fol@@ 744
possible 744
fan@@ 742
ven@@ 742
reden 741
projekt 741
fr@@ 739
0s 739
order 739
dank 738
bio@@ 738
ieren 737
hope 737
heard 736
ments 736
leuten 736
seinen 735
community 733
heit 733
ßen 733
zed 732
darum 732
beautiful 731
looked 731
überall 731
gro@@ 730
bevor 728
euch 728
ates 727
bor@@ 726
manchmal 725
sachen 725
schi@@ 725
often 725
yes 724
group 724
matter 724
ap@@ 723
face 721
teil@@ 721
ters 721
out@@ 721
fer@@ 720
är@@ 720
schul@@ 719
planeten 719
ki@@ 717
piece 714
entwickelt 714
ents 714
research 713
fe 712
built 712
mittel@@ 712
public 712
geb@@ 711
gehört 711
read 710
india 710
je 710
por@@ 710
sei 709
ator 708
ness 707
lich@@ 706
ling 706
months 705
mel@@ 704
united 704
can@@ 704
answer 703
ner@@ 703
fer 703
amazing 703
works 703
bur@@ 702
god 702
gh@@ 701
ob@@ 701
natur 701
bt 700
late 700
stories 699
wert 698
universe 697
head 697
9 695
milliarden 695
someone 695
cre@@ 694
wieder@@ 694
taking 693
situation 693
unternehmen 693
tional 692
sagten 692
ence 691
gend 691
myself 691
zellen 691
ved 691
col@@ 690
ig@@ 690
ase 689
places 689
seinem 689
liegt 688
va@@ 688
education 687
words 687
gener@@ 687
kennen 687
besch@@ 687
instead 686
mädchen 684
informationen 683
dro@@ 683
since 683
gel 682
wal@@ 682
sha@@ 682
tze 682
nennen 681
eins 681
until 681
wissenschaft 680
anderes 680
tur@@ 680
mer 679
usa 679
species 677
yeah 677
isn 676
dna 676
fahr@@ 676
tat 675
ourselves 675
control 674
off@@ 674
ia 673
government 673
ving 673
ie@@ 673
sometimes 673
fand 671
front 670
bau@@ 670
ischer 670
revolution 669
night 667
12 667
land@@ 667
led 666
turn 666
generation 666
199@@ 665
ces 665
/ 664
25 663
tische 662
happy 661
0@@ 661
decided 661
gestellt 660
eg@@ 659
somebody 659
— 659
erkennen 658
und@@ 658
kr@@ 658
nor@@ 657
besonders 657
lage 656
mp@@ 656
bilder 655
deshalb 654
bl@@ 653
spiel 653
pf@@ 652
steht 652
middle 652
couple 652
heart 651
wel@@ 651
ene 651
machte 650
language 650
stop 649
verändern 649
turns 648
lau@@ 648
rather 648
lichkeit 648
zeit@@ 647
tä@@ 647
versch@@ 647
heraus@@ 646
stück 646
teile 646
gleich 645
ou@@ 645
geschichten 644
t-@@ 644
gar 643
enti@@ 643
gesellschaft 642
sprache 642
model 642
exactly 642
2@@ 641
treffen 641
führt 641
familie 641
minuten 639
fin@@ 639
alten 639
gefühl 638
namens 637
large 636
kinds 635
society 635
sau@@ 635
ev@@ 635
spiel@@ 635
wasn 634
erreichen 634
tischen 634
ün@@ 634
wegen 634
run 633
mü@@ 633
klar 633
bereits 633
word 633
fil@@ 633
though 632
everyone 632
company 631
woman 630
oben 630
benutzen 629
vater 629
tions@@ 629
flu@@ 627
hren 627
itself 627
act 627
ziehen 626
auszu@@ 626
mother 625
sam@@ 625
gan@@ 624
hoch@@ 624
completely 623
dich 623
indien 623
musste 622
themselves 622
minutes 622
ations 621
game 621
verschiedene 621
animals 620
news 620
hätten 620
lebens 620
id 619
möglichkeit 618
students 618
sechs 617
irgend@@ 617
pan@@ 617
tragen 617
share 616
cr@@ 616
antwort 616
cra@@ 616
musik 616
evolution 615
gang 615
vo@@ 615
v 614
end@@ 614
stre@@ 614
became 614
cke 613
hr@@ 613
fla@@ 613
dy 613
enen 613
80 613
sei@@ 611
shows 611
cal 611
viel@@ 611
sel@@ 610
must 609
char@@ 609
kal@@ 609
ess 609
experiment 607
darin 606
haus 606
kat@@ 605
innovation 605
happening 604
table 604
america 604
pac@@ 604
bas@@ 603
sal@@ 601
environment 601
american 601
learned 600
60 600
friends 599
sto@@ 599
oil 598
ics 598
gene 598
meter 598
net 598
created 598
hear 598
study 598
gerne 597
air 597
view 596
tiert 596
wasser@@ 596
ce@@ 596
ton@@ 595
bil@@ 595
kopf 595
weiter@@ 595
huge 595
einzige 594
gkeit 594
os 593
sound 593
hours 592
win@@ 592
sho@@ 592
third 591
tiere 591
tten 591
frei@@ 590
ele@@ 590
ven 590
jedem 590
mittel 590
gar@@ 589
falls 589
auto@@ 589
tru@@ 588
natural 587
bra@@ 586
century 586
ys 586
ment@@ 586
cur@@ 585
oper@@ 585
einigen 585
augen 585
ic@@ 583
besten 583
lar@@ 583
lie@@ 583
nung 582
won 582
ach@@ 582
arm 581
stic 581
disease 580
stor@@ 579
schreiben 579
länder 578
entwickeln 578
guys 577
sed 577
lation 577
stat@@ 577
stunden 577
gte 577
tter@@ 576
innerhalb 574
kol@@ 574
onen 574
population 574
dessen 574
fre@@ 573
along 573
ß 573
worked 572
niemand 571
bat@@ 571
regi@@ 571
ckt 571
don@@ 570
irgendwie 570
self-@@ 570
gleichen 569
market 569
bewegen 569
sor@@ 569
fish 569
ran@@ 568
bringt 568
gott 568
fra@@ 568
wachsen 568
questions 567
gleiche 567
figure 565
ka 564
pos@@ 564
perhaps 564
center 564
tisch 564
area 563
gebracht 563
san@@ 563
particular 563
lässt 562
turned 562
moving 562
early 562
soll 561
based 561
verhalten 561
knew 561
ern@@ 560
schließlich 560
regierung 559
kindern 559
psych@@ 559
national 559
gebäude 558
against 558
cher@@ 558
lots 557
couldn 557
others 557
aufge@@ 556
machine 556
pas@@ 556
obwohl 554
ocean 554
sted 554
verschiedenen 553
menschlichen 552
18@@ 552
up@@ 552
zing 552
tiven 551
clo@@ 551
gave 551
learning 550
known 550
hol@@ 550
during 550
wür@@ 550
lt 549
past 549
äu@@ 549
verwenden 549
ked 548
schaft 547
wing 547
vorstellen 547
erhalten 547
zei@@ 546
ted@@ 546
hor@@ 546
gegen@@ 546
möglichkeiten 546
ur 545
takes 545
hl@@ 544
plan 544
gleich@@ 544
rec@@ 544
dern 543
lesen 542
position 542
200 541
ändern 541
phone 541
cally 541
patienten 541
vision 541
beiden 540
least 540
my@@ 540
scale 540
cell 539
500 538
cri@@ 538
nimmt 537
aren 536
bs 536
lose 536
cts 535
physi@@ 535
kre@@ 534
nämlich 534
produ@@ 533
free 533
gemein@@ 533
ture 533
outside 533
eltern 532
schw@@ 532
eth@@ 532
kraft 531
lösung 531
gten 531
syn@@ 531
genommen 530
finally 530
aller 530
aten 530
dri@@ 530
hab@@ 529
ther@@ 529
wollten 529
chter 529
father 529
dir 528
culture 528
krebs 528
ground 528
bre@@ 527
tage 527
cing 526
difference 526
chance 526
online 525
ren@@ 525
stellte 525
media 525
wonderful 525
len 524
seven 524
ying 524
needs 524
del@@ 524
key 524
schwer 523
männer 523
entire 523
taken 522
close 522
version 522
beginnen 522
unglaublich 521
david 521
kamen 521
ori@@ 521
tt 520
mus 520
ec@@ 519
patient 519
ined 518
lösen 518
wirtschaft 517
entwicklung 517
isches 517
tal@@ 516
ess@@ 516
kunst 516
fähigkeit 516
formen 516
hlt 516
bitte 515
pt 515
stelle 515
damals 515
hoch 515
na 515
image 514
rück@@ 514
gre@@ 514
yo@@ 514
google 513
auto 513
green 513
herum 512
ant@@ 512
gri@@ 511
sinn 511
glück 511
fahren 510
ders 510
hnen 510
thousands 509
versucht 509
selbst@@ 508
met 508
kar@@ 508
arti@@ 507
drei@@ 506
powerful 506
universum 506
force 506
wir@@ 505
fü@@ 505
fangen 505
wohl 505
hn@@ 504
län@@ 504
west 504
hause 504
daher 504
stage 504
parts 503
fort@@ 503
flie@@ 503
legen 503
voll@@ 503
whatever 502
laufen 502
tter 501
kultur 501
kop@@ 501
angst 501
staaten 501
getan 500
poli@@ 500
yourself 500
fühlen 499
changed 499
ust 499
seeing 499
rie@@ 498
lehr@@ 498
stoff 498
kti@@ 498
kin@@ 498
zt 497
ssen 497
uni@@ 497
gung 497
hinter 497
schön 497
dre@@ 497
nächste 497
cost 496
grow 496
tend 496
überhaupt 496
anti@@ 496
behind 496
richtung 495
far@@ 495
ls 495
sü@@ 495
beginning 495
schü@@ 495
ide@@ 494
given 494
hilfe 494
software 494
voll 494
leave 493
walk 493
certain 493
verändert 493
bal@@ 493
eyes 492
blick 492
tut 492
nis 491
visu@@ 491
normal 491
indi@@ 491
ani@@ 490
wort 490
pped 490
rech@@ 490
bewegung 490
zwar 490
spezi@@ 489
baren 489
tzen 489
size 488
son@@ 488
nachdem 488
spend 488
krieg 488
fly 487
gene@@ 487
zahlen 487
audience 486
bom@@ 486
allem 486
cool 486
pal@@ 486
span@@ 486
wind 486
isi@@ 485
parents 485
modell 484
menschliche 484
bro@@ 484
junge 484
baby 484
ini@@ 484
alter 484
amount 484
zahl 483
street 483
18 483
full 483
groß 482
death 482
easy 482
low 482
nahmen 481
terms 481
ser 480
sive 480
schla@@ 480
wh@@ 480
deren 480
ism 480
neuro@@ 480
letzte 479
fac@@ 479
interested 478
dau@@ 478
0-@@ 478
gest@@ 478
labor 478
bon@@ 478
grunde 478
pe 477
kurz 476
hiv 476
cannot 476
ns 476
economic 476
belie@@ 476
dete 476
eight 475
buy 475
plan@@ 475
cap@@ 474
nan@@ 474
tors 474
cho@@ 474
einge@@ 474
pla@@ 474
sterben 473
kü@@ 473
books 473
spi@@ 472
common 472
eher 472
began 472
maschine 471
cy@@ 471
ht 471
spr@@ 471
week 470
dingen 470
web 469
treten 469
region 469
unten 469
ats 469
tiv 469
wahr@@ 468
kes 468
bare 468
ard 467
field 467
mes 467
worden 467
black 467
difficult 467
wissenschaftler 466
sum@@ 466
local 466
lö@@ 466
gone 466
felt 466
erfahrung 465
air@@ 465
ill@@ 465
tte 465
äl@@ 464
.000 464
tat@@ 463
cities 463
krei@@ 463
üb@@ 463
vis@@ 462
genden 462
deal 462
wider@@ 462
nahm 462
fis@@ 461
enten 461
sin@@ 461
fanden 460
bin@@ 460
findet 460
ang@@ 459
eu@@ 459
value 459
unterschied 459
ship 459
fest@@ 458
betrachten 457
jungen 457
blue 457
welches 457
ously 457
medi@@ 457
hands 457
meines 456
hold 456
code 456
friend 456
ien 456
kaufen 455
eller 455
hy@@ 455
top@@ 454
ums 454
ris@@ 453
paper 453
ned 453
needed 453
south 452
muster 452
len@@ 452
neu 452
squ@@ 452
fru@@ 452
lung 452
weitere 451
zen@@ 451
kur@@ 451
ther 451
tief@@ 451
longer 451
jedoch 451
simply 451
mechan@@ 450
eigene 450
vari@@ 450
en-@@ 450
haus@@ 450
führ@@ 450
fliegen 450
blu@@ 449
mag 449
cting 449
pur@@ 449
anfang 448
realized 448
spent 448
10@@ 448
ker@@ 448
forschung 448
humans 447
incredible 447
either 447
ord@@ 446
mati@@ 446
fel@@ 446
boden 446
platz 446
wand@@ 446
personal 445
kosten 445
mission 444
ziel 444
schä@@ 444
lieben 444
dig 444
wohl@@ 443
thema 443
tried 443
grund@@ 443
step 443
posi@@ 442
fal@@ 442
sex 441
bildung 441
micro@@ 441
gebaut 441
asi@@ 441
scho@@ 441
0,000 441
beste 441
körper@@ 440
rau@@ 440
groß@@ 440
cker 440
0.000 440
born 440
mt 439
schu@@ 439
forward 439
growth 439
dly 439
prozess 438
om 438
roboter 438
,@@ 437
feet 437
lehrer 437
bes 437
chan@@ 437
falsch 436
verbindung 436
surface 436
inten@@ 435
sitting 435
prin@@ 435
watch 435
solche 435
quickly 435
cer@@ 435
ice 434
erinnern 434
companies 433
atom@@ 433
mussten 433
stan@@ 433
clear 432
bank 432
white 432
autos 432
ality 432
interessant 432
vortrag 432
lost 431
girl 431
genauso 431
bel 431
hinter@@ 431
complex 431
bleiben 430
woche 430
fragte 429
equ@@ 429
grün@@ 429
ße 429
markt 429
direkt 429
structure 428
fro@@ 428
minute 428
suchen 428
bereich 428
zer 427
pat@@ 427
wohn@@ 427
publikum 427
kri@@ 427
tau@@ 426
jobs 426
sollen 425
knowledge 425
wen@@ 425
mas@@ 425
wouldn 425
zweite 425
growing 424
enth@@ 424
gei@@ 424
blo@@ 424
fri@@ 423
namen 423
weg@@ 423
zes 423
hü@@ 423
board 423
miles 423
virus 423
pay 422
gefunden 421
u.s. 421
chen@@ 420
fallen 420
wahr 420
sieben 420
nt 420
od@@ 420
198@@ 419
reality 419
selben 419
freunde 419
sea 418
john 418
wol@@ 418
hlen 418
zuvor 418
sie@@ 418
university 417
,000 417
technologies 417
sun 417
box 417
einzu@@ 417
il 416
gedanken 416
sting 416
ologie 416
neues 416
ame 416
eli@@ 416
political 416
poor 416
han@@ 415
sil@@ 415
danach 414
religion 414
tin@@ 414
giving 414
sch 413
economy 413
pra@@ 413
tives 413
tages 413
eat 413
monate 413
guten 412
animal 412
größte 412
fas@@ 412
fun 412
mine 412
positive 412
a-@@ 412
hast 411
weeks 411
theorie 411
oni@@ 411
nte 410
pr@@ 410
fest 410
ften 409
wusste 409
ales 409
morning 409
arch@@ 409
opportunity 409
behavior 409
ziert 409
cking 409
cked 409
setzt 408
ta 408
yp@@ 408
ppe 408
fle@@ 407
wären 407
glücklich 407
cul@@ 406
plötzlich 406
la 406
hey 406
dat@@ 406
erschaffen 406
ft@@ 405
brought 405
70 405
gers 405
developed 405
changes 405
mag@@ 405
studi@@ 405
zehn 405
fall@@ 404
11 404
kli@@ 404
besteht 404
college 403
source 403
ative 403
gegeben 403
patients 403
telling 402
scientists 402
wrote 402
cal@@ 402
program 401
designer 401
anyone 401
digen 401
schle@@ 400
testen 400
ah 400
anderer 400
stoff@@ 400
struktur 400
technologien 399
ey 399
sy@@ 399
ig 399
mikro@@ 399
90 399
fing 399
ball 399
ha 399
reise 398
write 398
cs 398
starting 398
äch@@ 398
gas 397
zä@@ 397
o-@@ 397
draußen 397
dlich 397
museum 397
cut 397
berei@@ 396
lam@@ 396
coun@@ 396
völlig 396
gemeinschaft 396
sicht@@ 396
theory 396
ill 396
colle@@ 396
feeling 395
wall 395
sters 395
tools 395
prote@@ 394
gew@@ 394
images 394
ihres 394
vol@@ 394
vers 394
ländern 394
technik 394
jen@@ 393
nice 393
wochen 393
identi@@ 393
lab 393
wes@@ 393
offen@@ 392
gelernt 392
potential 392
glück@@ 392
areas 392
bot@@ 392
sicht 392
sehe 391
fli@@ 391
climate 391
stand@@ 391
ning 391
tical 391
mate 391
zuerst 390
gives 390
größe 390
ör@@ 390
bed 390
rat@@ 390
modern 390
fel 389
ss@@ 389
luft 389
histor@@ 389
ched 389
manche 389
sicherheit 388
reihe 388
cli@@ 388
cam@@ 388
non-@@ 388
yed 387
understanding 387
sig@@ 387
law 387
ham@@ 387
ama@@ 386
tho@@ 386
radi@@ 386
nei@@ 386
teten 386
sorgen 386
ca 386
möchten 386
wand 386
ss 385
uren 385
heiten 385
beru@@ 384
discovered 384
scheint 384
bewusst 384
hen@@ 384
attention 384
est@@ 383
head@@ 383
enz 383
strei@@ 383
aussehen 382
refle@@ 382
short 382
fied 382
ze@@ 382
beginnt 382
impro@@ 382
bereit 381
cars 381
pping 381
speak 381
las@@ 381
herr@@ 381
literally 381
mus@@ 381
erklären 380
links 380
pul@@ 380
flug@@ 380
moral 380
unseres 380
leben@@ 380
swe@@ 380
ths 380
bist 379
funktionieren 379
zeug 379
ffe 379
lang@@ 379
morgen 379
investi@@ 379
miteinander 378
seems 378
zo@@ 378
cat@@ 378
general 378
forms 378
egal 377
numbers 377
inv@@ 377
playing 377
arbeitet 377
pun@@ 377
deep 377
systeme 377
challenge 377
aufgabe 377
gewesen 376
tun@@ 376
produce 376
schritt 376
hervor@@ 376
studenten 376
gewal@@ 376
musi@@ 376
amerika 375
ppen 375
flü@@ 375
proje@@ 375
vel@@ 375
bran@@ 375
map 375
average 374
she@@ 374
sol@@ 374
erzählt 374
ical 374
realize 374
anzahl 374
fully 374
mars 374
ese 373
main 373
bli@@ 372
16 372
program@@ 372
access 372
computer@@ 372
diagno@@ 372
gs@@ 372
ently 372
sli@@ 371
sing@@ 371
nachdenken 371
daraus 371
aufzu@@ 371
girls 371
anstatt 371
tatsache 371
died 370
mache 370
changing 370
computers 370
brachte 370
denkt 370
dr. 370
ented 370
anfangen 369
fun@@ 369
prä@@ 369
oren 369
geworden 369
nten 369
cket 369
acht 369
uses 369
bekannt 368
passieren 368
stimmt 368
karte 368
auth@@ 368
absolutely 368
north 368
niemals 367
bottom 367
physical 367
ley 367
ement 367
digital 367
mm 367
movement 366
gerät 366
gruppen 366
running 366
klein@@ 366
lat@@ 365
demon@@ 365
english 365
plat@@ 365
verwendet 365
hel@@ 365
jemals 365
mat@@ 365
cop@@ 365
developing 364
ad 364
traum 364
glob@@ 364
alone 364
hundreds 364
infe@@ 364
ology 364
shape 364
materials 364
dru@@ 363
ige 363
deli@@ 363
nacht 363
firma 363
individual 363
aff@@ 362
vent@@ 362
spricht 362
steu@@ 362
bevölkerung 361
gesicht 361
millions 361
jahrhundert 361
creating 361
student 361
result 361
dem@@ 360
hier@@ 360
lin 360
000 360
genannt 360
nobody 360
log@@ 360
vorstellung 360
chi@@ 359
development 359
chris 359
messen 359
innen 359
preis 358
quality 358
mensch 358
gende 358
bücher 358
analy@@ 358
interessan@@ 357
schwierig 357
tö@@ 357
straße 357
folgen 357
tic@@ 357
wäl@@ 356
kleines 356
zeige 356
gesundheit 356
liegen 356
ore 356
eigen@@ 356
recently 355
medical 355
elektr@@ 355
london 355
town 355
gingen 355
bekommt 355
wahl 355
solution 354
zentr@@ 354
spo@@ 354
compassion 354
mot@@ 353
haupt@@ 353
product 353
listen 353
mental 353
beide 353
afghanistan 353
chinese 352
gebiet 352
kinder@@ 352
300 352
billi@@ 352
focus 352
größten 352
wish 352
ständig 352
clu@@ 351
holen 351
designed 351
tor 351
gän@@ 351
bru@@ 351
argu@@ 351
ßt 351
0ern 351
showed 350
tier 350
gezeigt 350
scht 350
major 350
essen@@ 350
wn 350
connected 350
krankheit 350
emp@@ 349
relationship 349
ed@@ 349
cent 349
kid 349
east 349
mathemati@@ 349
sonst 349
ve@@ 348
tel@@ 348
kel 348
tas@@ 348
blood 348
soziale 347
industry 347
cro@@ 347
knows 347
umgebung 347
sä@@ 347
anybody 346
gefü@@ 346
foto 346
politik 346
hon@@ 346
tiny 346
1,@@ 345
tal 345
ctions 345
eit 345
fir@@ 345
aler 345
tics 345
schulen 345
allein 344
oberfläche 344
ball@@ 344
cin@@ 344
seem 344
obviously 344
save 344
dom@@ 344
dark 344
person@@ 344
lea@@ 344
wahrheit 344
haven 344
tab@@ 344
zeiten 343
talks 343
benutzt 343
moved 343
soon 342
ingly 342
stimme 342
security 342
park 342
send 342
schrieb 342
support 342
herz@@ 342
dic@@ 342
kontrolle 342
likely 341
ente 341
öl@@ 341
talked 341
class 341
tzt 341
dungen 341
techni@@ 341
tex@@ 340
stark 340
issue 340
fehl@@ 340
versuche 340
verbunden 340
pflanzen 340
ute 339
incredibly 339
städte 339
begin 339
spiele 339
seiten 339
ast 338
allow 338
especially 338
network 338
happiness 338
jemanden 338
richtige 338
schlecht 338
available 338
proz@@ 338
taten 338
human@@ 338
sicher@@ 338
für@@ 338
type 338
bilden 337
rolle 337
writing 337
sonnen@@ 337
ander@@ 337
kleiner 336
regeln 336
zieren 336
cles 336
wil@@ 336
tier@@ 336
leicht 336
werte 335
geschrieben 335
vie@@ 334
sozi@@ 334
xi@@ 334
becomes 334
ared 334
multi@@ 334
aids 334
ining 333
les@@ 333
impact 333
effect 333
ff 333
beyond 333
hälfte 333
tät 333
wä@@ 333
solve 333
entfernt 333
betra@@ 332
games 332
present 332
meinung 332
wat@@ 332
laden 332
dete@@ 332
stu@@ 332
lived 332
training 331
action 331
hi 331
perfect 331
satz 331
bedeutung 331
schaut 331
mass 331
onto 331
high-@@ 331
lebt 331
explain 330
smo@@ 330
app@@ 330
liter@@ 330
ession 330
office 330
cou@@ 330
ähn@@ 330
ass 330
continu@@ 330
mitte 330
worth 329
veränderung 329
pil@@ 329
hour 329
dead 329
ingen 329
hil@@ 329
gele@@ 329
bigger 328
resources 328
operation 328
gegenüber 328
einfache 328
please 328
statt 328
guess 327
machten 327
zelle 327
tausende 327
essi@@ 327
chtet 327
appe@@ 327
gesprochen 327
blin@@ 326
fähigkeiten 326
schwier@@ 326
richard 326
hält 326
mein@@ 326
ismus 326
genen 326
active 326
verste@@ 326
depen@@ 326
dig@@ 325
gue 325
reasons 325
gal@@ 325
international 325
hoffe 325
weisen 325
scientific 325
europe 324
industri@@ 324
not@@ 324
sus@@ 324
ei 324
mögen 324
gesam@@ 324
ras@@ 324
strong 324
drive 324
biolog@@ 324
erreicht 324
ren 323
sonne 323
schei@@ 323
groups 323
zeich@@ 323
western 323
fear 323
device 323
tel 323
ans@@ 322
finde 322
thi@@ 322
lines 322
geboren 322
tells 321
basis 321
zimmer 321
kle@@ 321
freund 321
putting 321
solar 320
verb@@ 320
14 320
mä@@ 320
lab@@ 320
sm@@ 320
finger 319
mehr@@ 319
gekommen 319
leu@@ 319
programm 319
197@@ 319
interessiert 319
boy 319
website 319
rules 318
rein@@ 318
eless 318
schwer@@ 318
schools 318
algorith@@ 318
dou@@ 318
ank@@ 318
med 317
spro@@ 317
nis@@ 317
meet 317
color 317
teach 317
sun@@ 317
studie 317
glo@@ 317
bewegt 316
ot 316
special 316
erfolg 316
nation 316
abzu@@ 316
stellung 316
plant 315
beziehung 315
hop@@ 315
teilt 315
vereinigten 315
schließen 315
wann 315
voice 315
verloren 314
bill 314
komplett 314
ced 314
ansehen 313
schie@@ 313
ye@@ 313
absolut 313
sions 313
roll@@ 313
bekam 313
hun@@ 313
ble@@ 313
bab@@ 313
vier@@ 313
pictures 312
liber@@ 312
similar 312
heutzutage 312
ise 312
several 311
befinden 311
ang 311
gesetzt 311
road 311
lä@@ 311
tungen 311
village 311
towards 311
einzelne 311
kam@@ 311
ak 311
fehler 311
wär@@ 311
extra@@ 311
öl 310
geri@@ 310
ignor@@ 310
zw@@ 310
speed 309
dynam@@ 309
teachers 309
tan 309
aller@@ 309
ebene 309
involved 309
projects 309
klu@@ 309
gesundheits@@ 309
door 309
issues 309
pfen 308
offensichtlich 308
liert 308
sionen 308
mäch@@ 308
dachten 308
activity 308
eye 308
ktion 308
list 307
gesamte 307
mes@@ 307
pli@@ 307
stam@@ 307
particularly 307
risk 307
break 307
sent 307
tod 307
lieren 307
ina 307
mö@@ 307
new@@ 307
leg@@ 306
econom@@ 306
herausforderung 306
male 306
indeed 306
back@@ 306
voller 306
asking 306
bald 306
eng@@ 306
komme 306
sofort 306
suddenly 306
$ 306
kil@@ 306
geschieht 305
ach 305
gol@@ 305
robot 305
herauszufinden 305
hle 305
port@@ 305
on-@@ 304
trotzdem 304
basic 304
nennt 304
rus@@ 304
ober@@ 304
arb@@ 304
dest 304
nisse 304
krankheiten 304
stellten 304
cla@@ 304
star 303
schnitt 303
langen 303
wachstum 303
mitgefühl 303
bet@@ 303
foot@@ 303
deten 303
normalerweise 303
mic 303
ähnlich 303
symme@@ 302
lon@@ 302
cle@@ 302
kla@@ 302
sahen 302
glichen 302
nine 302
sounds 302
wieso 302
esti@@ 302
carbon 301
evidence 301
wichtige 301
resi@@ 301
schau@@ 301
ures 301
linie 301
hit 301
gearbeitet 301
ped 301
dy@@ 301
hoffnung 300
truth 300
hundred 300
musli@@ 300
page 300
ny 300
certainly 300
kannst 300
teri@@ 299
message 299
fä@@ 299
form@@ 299
überrasch@@ 299
respe@@ 299
smart 299
er-@@ 298
sl@@ 298
demo@@ 298
tagen 298
fig@@ 298
formed 297
hau@@ 297
object 297
mieren 297
sprach 297
13 297
spe@@ 297
ching 297
mc@@ 297
virtu@@ 297
starts 297
nutz@@ 297
stimmen 296
stay 296
wait 296
europa 296
schein@@ 296
recor@@ 296
sand 296
choice 296
hung 296
möglichen 296
ators 295
mini@@ 295
anyway 295
mei@@ 295
trau@@ 295
igen 295
explo@@ 295
fine 295
halte 295
grenzen 295
ergebnis 295
stische 295
künstler 294
ward 294
ray 294
wants 294
passen 294
grand@@ 294
exi@@ 294
month 294
gewinnen 294
hospital 293
walking 293
pol@@ 293
exc@@ 293
sell 293
führte 293
desig@@ 293
beri@@ 293
bewusstsein 293
cations 293
brea@@ 292
matic 292
q@@ 292
gas@@ 292
ordnung 292
halt 292
everywhere 292
temp@@ 292
ots 292
dec@@ 292
peace 292
our@@ 292
row 292
kunst@@ 291
energi@@ 291
unge@@ 291
sitzen 291
entscheidungen 291
cen@@ 291
verl@@ 291
ehr@@ 290
24 290
plants 290
examples 290
edi@@ 290
iran 290
ral 290
kö@@ 290
eben 290
fire 290
ra 290
wesen 290
läuft 289
mark 289
ature 289
ligh@@ 289
mul@@ 289
ath@@ 289
japan 289
cha@@ 289
journ@@ 289
fassen 289
dd@@ 288
anschauen 288
tlich 288
umwelt@@ 288
reach 288
hän@@ 288
zero 288
ket@@ 287
pain@@ 287
tin 287
15@@ 287
gleichzeitig 287
rela@@ 287
besu@@ 287
interest 287
fälle 287
showing 287
herum@@ 286
spa@@ 286
wie@@ 286
further 286
ready 286
store 286
zentrum 286
loo@@ 286
partner 286
vergessen 286
skin 286
hört 286
down@@ 286
techn@@ 286
medicine 286
exciting 286
weltweit 286
pattern 286
tou@@ 285
kapit@@ 285
hielt 285
total 285
folge 285
ases 285
ration 285
alte 285
notice 285
hä@@ 285
bedeu@@ 284
länger 284
fte 284
tigt 284
self 284
sozialen 284
zeichnet 284
funktion@@ 284
bestimmten 284
al-@@ 284
professor 284
monaten 284
wichtiger 284
milli@@ 283
journey 283
democracy 283
san 283
klas@@ 283
orte 283
plasti@@ 283
ines 283
größer 283
sieren 283
treiben 282
ably 282
lagen 282
develop 282
beobachten 282
nuclear 282
inn@@ 282
add 282
service 282
nachhal@@ 282
totally 282
realität 282
ow@@ 282
rise 282
gedacht 282
einzelnen 281
stern 281
bedro@@ 281
ants 281
biggest 281
begannen 281
rede 281
foot 281
follow 281
extraordinary 281
übrigens 281
shu@@ 281
measure 281
effizi@@ 281
sit 281
sobald 280
sou@@ 280
x-@@ 280
grew 280
frequ@@ 280
orten 280
spei@@ 280
named 280
daten@@ 280
klei@@ 280
ear@@ 279
gutes 279
imm@@ 279
großer 279
val@@ 279
ony 279
produkt 279
punkte 279
ast@@ 279
period 279
los@@ 278
feld 278
schl@@ 278
repor@@ 278
netz@@ 278
merk@@ 278
greifen 278
sky 278
ming 278
ließ 278
teacher 278
richtigen 278
stell@@ 278
gewöhn@@ 278
lead 277
wards 277
ended 277
aufmerksamkeit 277
mod@@ 277
400 277
fische 277
firmen 277
among 277
besit@@ 277
enor@@ 277
ences 277
196@@ 277
ationen 276
sper@@ 276
non@@ 276
pick 276
abge@@ 276
deine 276
druck 276
stoffe 276
wan@@ 276
gemeinsam 276
erd@@ 276
schneller 276
ferti@@ 276
gaben 275
poverty 275
trä@@ 275
passierte 275
überleben 275
denk@@ 275
ank 275
staat@@ 275
hab 275
st-@@ 275
organization 275
cru@@ 275
schn@@ 275
band 275
verlieren 275
sh 275
zier@@ 275
außer 274
hl 274
ctive 274
eventually 274
großes 274
ik 274
ären 274
ages 274
bessere 274
comp@@ 274
buildings 274
lle 274
änder@@ 274
ops 274
dance 274
redu@@ 273
quad@@ 273
nation@@ 273
wert@@ 273
spaß 273
definition 273
medien 273
fron@@ 273
bul@@ 273
produzieren 272
tzung 272
points 272
posed 272
bleibt 272
standing 272
vorher 272
cultural 272
halb 272
fisch 272
kultur@@ 272
volle 272
ll 272
visual 272
cause 271
inst@@ 271
obser@@ 271
camera 271
wander@@ 271
langsam 271
acc@@ 271
extremely 271
stän@@ 271
arab@@ 271
beispiele 271
pit@@ 271
largest 271
except 271
approach 270
alized 270
sammeln 270
arbeits@@ 270
stars 270
ingenie@@ 270
success 270
videos 270
rich 269
umwelt 269
strom 269
essentially 269
usually 269
demokratie 269
tem 269
watching 269
nachzudenken 269
bele@@ 269
medizin 269
schaften 268
sprachen 268
aspe@@ 268
berg 268
perfe@@ 268
außerdem 268
products 268
creative 268
drücken 268
zumindest 268
klein 268
peri@@ 268
shot 267
industrie 267
wussten 267
rich@@ 267
objects 267
song 267
arbeitete 267
text 267
aging 267
berech@@ 267
versuchte 267
nete 267
interessante 267
continue 267
ian 267
qui@@ 267
lied 267
zeichnen 267
nen@@ 267
bö@@ 266
tically 266
reich 266
older 266
island 266
stei@@ 266
ierte 266
eig@@ 266
cies 266
amerikanischen 266
winzi@@ 266
sym@@ 266
einfluss 266
power@@ 266
lli@@ 266
trees 265
bestimmt 265
verstanden 265
to-@@ 265
sten@@ 265
instru@@ 265
series 265
chines@@ 265
schlagen 265
geschehen 265
results 265
massive 265
cover 265
j 265
spread 265
wow 265
chtung 264
trag@@ 264
17 264
entdecken 264
electricity 264
nachrichten 264
us-@@ 264
ish 264
verbessern 264
one-@@ 264
cl@@ 264
wed 264
schrei@@ 264
arbei@@ 264
hom@@ 263
electr@@ 263
gewalt 263
sowohl 263
paul 263
wün@@ 263
zweiten 263
safe 263
ologen 263
models 263
cian 263
innova@@ 263
washington 263
sichti@@ 263
individu@@ 263
spezies 263
mensch@@ 263
stisch 263
win 263
screen 263
roman@@ 262
studien 262
bus@@ 262
kab@@ 262
main@@ 262
co2 262
kno@@ 262
schöne 262
facebook 262
somewhere 262
dad 262
serious 262
haut 262
klasse 262
intervie@@ 262
phy@@ 262
hing 261
fällt 261
tly 261
hit@@ 261
brains 261
dadurch 261
fei@@ 261
prei@@ 261
minds 260
square 260
kn@@ 260
touch 260
vorher@@ 260
ght 260
zogen 260
mom 260
wu@@ 260
liste 260
gegangen 260
llt 260
vertrauen 260
ffen 260
diejenigen 260
nar@@ 260
krie@@ 260
mathematik 259
tiger 259
movie 259
bühne 259
shi@@ 259
studies 259
za@@ 259
tree 259
poin@@ 259
zugang 259
impossible 259
flow 258
methode 258
leaders 258
1.@@ 258
doctor 258
conver@@ 258
fein@@ 258
expect 258
tik 258
prinzip 258
somehow 258
erinn@@ 258
kä@@ 258
faces 257
grad 257
äumen 257
attra@@ 257
clin@@ 257
audi@@ 257
organisation 257
vation 257
brauch 257
tam@@ 257
babies 257
erzeugen 257
amerikaner 257
ckte 257
geist 256
rel@@ 256
slo@@ 256
quar@@ 256
toll 256
tv 256
verlassen 256
personen 256
führung 256
esen 256
crazy 256
din@@ 256
lern@@ 255
african 255
scher 255
higher 255
expensive 255
larger 255
wife 255
menschheit 255
0er 255
thousand 255
ands 255
dige 254
gesi@@ 254
charles 254
zunehmen 254
killed 254
erlaubt 254
thre@@ 254
reich@@ 254
meaning 254
tool 254
zü@@ 254
rop@@ 254
nam@@ 254
sar@@ 254
jun@@ 254
private 254
frei 254
rechte 253
site 253
stä@@ 253
dur@@ 253
unt 253
trust 253
omen 253
shown 253
dent 253
schli@@ 253
sorts 253
nenne 253
zeichen 253
richten 253
dorf 253
stet 252
domin@@ 252
pieces 252
gründe 252
verständnis 252
allowed 252
gewis@@ 252
spielt 252
kra@@ 252
pers 252
organisi@@ 252
schlag 252
farbe 252
werk 252
architecture 252
erwar@@ 251
spar@@ 251
above 251
finding 251
handelt 251
thes@@ 251
hole 251
nachricht 251
bun@@ 251
vergangenheit 251
reading 251
blind 251
hörte 251
gewicht 251
kämpfen 251
herstellen 250
biology 250
written 250
köni@@ 250
schicken 250
tom@@ 250
ful@@ 250
45 250
including 250
früher 250
station 250
iger 250
gos 250
conditions 250
sexu@@ 249
zustand 249
hundert 249
konzept 249
israel 249
versuch 249
upon 249
wirklichkeit 249
beauty 249
neben@@ 249
therefore 249
swi@@ 249
reali@@ 249
fundamental 249
provi@@ 249
engineering 249
content 248
kern 248
ack@@ 248
traditional 248
hinaus 248
warten 248
dreht 248
genes 248
aussieht 248
stieg 248
crisis 248
sekunden 248
tom 248
oli@@ 248
ordin@@ 248
k-@@ 248
ered 247
tively 247
excited 247
connect 247
elte 247
trieben 247
papier 247
schüler 247
production 247
tele@@ 247
income 247
artikel 247
west@@ 247
dream 247
tar@@ 247
stration 247
red@@ 247
web@@ 247
universität 247
satelli@@ 247
200@@ 246
erle@@ 246
schreck@@ 246
frieden 246
brei@@ 246
pflan@@ 246
irgendwo 246
brau@@ 246
press 246
theater 246
typ 246
großartige 246
transpar@@ 246
künst@@ 246
individuals 246
worte 246
chti@@ 245
taught 245
f-@@ 245
bacteria 245
goal 245
hot 245
globalen 245
wör@@ 245
» 245
illu@@ 245
erhö@@ 245
geschwindigkeit 245
hrt 245
wissenschaft@@ 245
suche 245
supposed 245
has@@ 245
cep@@ 245
exp@@ 245
abstra@@ 245
frü@@ 244
dor@@ 244
ically 244
truly 244
organ@@ 244
schen@@ 244
endlich 244
complicated 244
shor@@ 244
freedom 244
öff@@ 244
fotos 244
tigkeit 244
cent@@ 244
arzt 244
perspective 244
familien 244
schaff@@ 244
lies 244
communities 243
zin@@ 243
bus 243
ney 243
tere 243
families 243
12@@ 243
kul@@ 243
dun@@ 243
drug 243
central 243
produkte 243
treatment 243
drugs 243
handeln 242
ods 242
famous 242
freiheit 242
wissen@@ 242
entweder 242
dn@@ 242
violence 242
werfen 242
terri@@ 242
optimi@@ 242
bodies 241
« 241
materialien 241
monat 241
england 241
struc@@ 241
combin@@ 241
rou@@ 241
rat 241
got@@ 241
sinne 241
verbinden 241
tungs@@ 241
healthy 241
seconds 241
stör@@ 241
favorite 241
faster 241
neben 240
geni@@ 240
wählen 240
geh@@ 240
oc@@ 240
behaup@@ 240
kranken@@ 240
steigen 240
fantastic 240
hypo@@ 240
behandlung 240
transpor@@ 240
folgt 240
einzel@@ 240
natur@@ 239
kt@@ 239
le-@@ 239
politi@@ 239
tent 239
gor@@ 239
chirur@@ 239
armut 239
zahl@@ 239
ly@@ 239
humanity 239
ends 239
kontin@@ 239
öffnen 239
haft 239
kill 239
fight 239
party 239
role 239
unmöglich 239
2000 238
grö@@ 238
typ@@ 238
ursprün@@ 238
bing 238
neurons 238
antworten 238
niedri@@ 238
lands 238
well-@@ 238
alive 238
mess@@ 238
welcher 238
stem 238
math 238
zz@@ 238
ogra@@ 237
qualität 237
ners 237
maschinen 237
hilft 237
werk@@ 237
christ@@ 237
himself 237
kohlen@@ 237
gründen 237
sam 237
obje@@ 237
di 237
ils 237
mme 237
chern 237
größ@@ 237
mur@@ 236
hea@@ 236
35 236
interesse 236
original 236
aufgrund 236
zieht 236
kel@@ 236
geschäft 236
lauf@@ 236
kommen@@ 236
repli@@ 236
minister 236
bildet 236
lern 236
details 236
response 236
reser@@ 236
lief 235
tens 235
meer 235
logi@@ 235
worse 235
verwen@@ 235
lü@@ 235
entdeckt 235
netz 235
gefähr@@ 235
sohn 235
repres@@ 235
ade 235
path@@ 235
ries 235
osten 235
riesige 235
date 235
conven@@ 235
nummer 235
krea@@ 235
range 234
heli@@ 234
fund@@ 234
compu@@ 234
bit@@ 234
fy 234
cases 234
schwe@@ 234
apo@@ 234
erzähl@@ 234
meant 234
ozean 234
successful 234
throughout 234
dge 234
zation 234
faszinier@@ 234
radio 234
balance 234
exper@@ 233
masse 233
ima@@ 233
skills 233
genome 233
myster@@ 233
ergebnisse 233
dasselbe 233
fern@@ 233
van@@ 233
although 233
re-@@ 233
tain 233
rechts 233
betrachtet 233
einstein 233
glich 233
phones 232
gewinn@@ 232
inclu@@ 232
chts@@ 232
150 232
ehe@@ 232
ebenso 232
aid 232
17@@ 232
machines 232
price 232
reg@@ 232
glass 232
bunch 232
see@@ 232
trägt 232
stunde 232
meeting 232
forsch@@ 232
pain 232
keln 231
michael 231
dritte 231
leisten 231
rele@@ 231
mani@@ 231
ran 231
frem@@ 231
insi@@ 231
einfachen 231
läu@@ 231
fur@@ 231
hyper@@ 231
ium 231
spek@@ 231
fair 231
physics 231
gh 231
drehen 231
objekt 231
lege 230
mach@@ 230
heben 230
respon@@ 230
dam@@ 230
acy 230
entschieden 230
umzu@@ 230
dist@@ 230
dischen 230
neun 230
bis@@ 230
ash 230
kept 230
außergewöhn@@ 230
ermöglicht 230
visi@@ 230
was@@ 230
part@@ 230
passt 230
military 229
three-@@ 229
wonder 229
skelet@@ 229
rights 229
gotten 229
mau@@ 229
earlier 229
fore@@ 229
kompli@@ 229
policy 229
philosop@@ 229
stes 229
bestimmte 229
alität 229
bieten 229
enter 229
publi@@ 229
after@@ 228
erklärt 228
verletz@@ 228
beings 228
video@@ 228
clearly 228
antwor@@ 228
himmel 228
high@@ 228
tivity 228
kamera 228
strange 228
früh@@ 228
actual 228
vic@@ 228
arbeite 228
raum@@ 227
uss 227
cycle 227
smaller 227
progress 227
fasst 227
rä@@ 227
legt 227
concept 227
hydro@@ 227
samen 227
context 227
haf@@ 227
patterns 227
grade 227
signal 227
recognize 227
era 227
ty@@ 227
unded 226
reichen 226
eigent@@ 226
diver@@ 226
armen 226
vely 226
herz 226
schafft 226
gü@@ 226
ereig@@ 226
americans 226
näher 226
slow 226
samm@@ 226
mals 226
energie@@ 226
zeigte 226
nahrung 226
wur@@ 226
solchen 226
druck@@ 226
ier@@ 226
endes 225
lie 225
wirk@@ 225
consi@@ 225
waste 225
spon@@ 225
familiar 225
kollegen 225
argument 225
uns@@ 225
entscheiden 225
hne 225
choose 225
effe@@ 225
print 225
trag 225
unde 225
gelegenheit 224
meeres@@ 224
gefragt 224
projekte 224
bla@@ 224
verstand 224
architektur 224
record 224
que 224
thanks 224
stischen 224
medizin@@ 224
bung 224
traf 224
gesamten 224
spieler 224
weile 224
president 224
consider 223
greater 223
gesetz 223
stein 223
grei@@ 223
sensor@@ 223
connection 223
listening 223
fluss 223
invented 223
extra 223
interak@@ 223
costs 223
depres@@ 223
matisch 223
values 223
waiting 223
treat 223
plastic 223
james 222
cir@@ 222
loss 222
ressourcen 222
fällen 222
beginn 222
zeuge 222
sinn@@ 222
dness 222
will@@ 222
eis 222
allows 222
malaria 222
solutions 222
chem@@ 222
beziehungen 222
lösungen 222
trin@@ 222
chung 222
etc 222
geschäfts@@ 222
ack 222
standard 222
befindet 222
anywhere 222
seh@@ 222
magic 222
raten 222
ph 221
kunden 221
kilometer 221
licht@@ 221
kaum 221
weight 221
green@@ 221
contribu@@ 221
ät 221
außerhalb 221
nä@@ 221
flüs@@ 221
km 221
menschen@@ 221
tests 220
erin 220
islam@@ 220
untersuchen 220
draw 220
kauf@@ 220
raus 220
wü@@ 220
rob@@ 220
freund@@ 220
kampf 220
divi@@ 220
pen 220
conser@@ 220
maß@@ 220
stü@@ 220
bakterien 219
wirkung 219
dan 219
driving 219
herzustellen 219
clean 219
photograph@@ 219
fs 219
600 219
hum@@ 219
komplex@@ 219
leistung 219
landes 219
ited 219
trifft 219
stro@@ 219
graph@@ 219
decisions 218
performance 218
invol@@ 218
ender 218
erzählte 218
film@@ 218
provide 218
related 218
wood 218
surgery 218
bau 218
emotional 218
zunächst 218
99 218
forest 218
nur@@ 218
george 218
wers 218
naja 218
weren 218
robots 218
worten 217
dog 217
gras@@ 217
schönheit 217
intelligence 217
effective 217
llen 217
sel 217
jahr@@ 217
hände 217
freu@@ 217
depression 217
dangerous 217
train 217
sich@@ 217
ror 217
tumor 217
sustainable 217
del 217
cated 217
veran@@ 217
sches 217
thomas 217
seines 217
phil@@ 217
straßen 217
critical 217
flying 216
september 216
hr 216
au 216
ory 216
sharing 216
heim@@ 216
zy@@ 216
tren@@ 216
ky 216
zell@@ 216
ember 216
mier@@ 216
gerä@@ 216
geln 216
auff@@ 216
boo@@ 216
aware 215
pass 215
2008 215
however 215
travel 215
artist 215
leider 215
dein 215
remarkable 215
fertig 215
conference 215
letz@@ 215
politics 215
teaching 215
explor@@ 215
wirtschafts@@ 215
trade 215
feed 215
boys 215
two-@@ 215
bezug 215
fuel 215
protect 215
none 215
walked 215
wagen 215
schwan@@ 215
ements 215
hinzu@@ 214
auswirkungen 214
stick 214
informa@@ 214
stände 214
biologie 214
verkaufen 214
anda 214
forming 214
whose 214
getroffen 214
legs 214
ttern 214
belo@@ 214
ambi@@ 214
schlechte 214
bürger@@ 214
ets 214
diversity 214
nicht-@@ 213
conversation 213
prof@@ 213
anymore 213
fähig 213
exist 213
foundation 213
ai@@ 213
conc@@ 213
ero@@ 213
auen 213
sum 213
gehirn@@ 213
religi@@ 213
nap@@ 213
inge 213
bild@@ 213
current 213
geschaffen 213
motor 213
geschlossen 213
rule 213
äre 213
ep@@ 213
scan@@ 213
arts 213
hör@@ 213
lag 213
direction 213
mobile 213
einzigen 212
gic 212
sat@@ 212
stream 212
siert 212
becoming 212
eigenschaften 212
heit@@ 212
sele@@ 212
herausfinden 212
ca. 212
fläche 212
freude 212
syste@@ 212
wege 212
mile 212
clim@@ 212
spitze 212
kämp@@ 211
bisher 211
scientist 211
slide 211
hat@@ 211
irs 211
organisationen 211
gehirns 211
stone 211
bits 211
uhr 211
tz 211
scre@@ 211
leidenschaft 211
entation 211
aktu@@ 211
whe@@ 211
ek 211
unglaubliche 211
letztes 210
som@@ 210
ial 210
docum@@ 210
brechen 210
voraus@@ 210
extrem 210
nigeria 210
bahn 210
prototyp@@ 210
erstens 210
understood 210
erfahren 210
werkzeuge 209
ing-@@ 209
moral@@ 209
deswegen 209
sex@@ 209
sla@@ 209
practice 209
lations 209
wichtigste 209
abend 209
protein 209
genetic 209
frank@@ 209
schwar@@ 209
tech 209
großartig 209
passion 209
block 209
jan@@ 209
dlichen 209
suff@@ 209
ghts 209
flugzeug 209
ells 208
cians 208
glaub@@ 208
zeitpunkt 208
yer 208
hed 208
specific 208
track 208
lernte 208
finanzi@@ 208
ktor 208
erneu@@ 208
mr. 208
geräte 208
experiments 208
ring 208
brü@@ 208
hoff@@ 208
steckt 208
floor 208
thetic 208
lower 208
pull 208
subject 208
immediately 208
robo@@ 208
studio 208
konferenz 207
zie@@ 207
krankenhaus 207
dün@@ 207
af@@ 207
in-@@ 207
environmental 207
auge 207
profi@@ 207
chs@@ 207
ads 207
increase 207
leiden 207
ehrlich 207
frie@@ 207
reach@@ 207
hunderte 207
greatest 207
held 207
function 207
services 207
rund 207
offi@@ 206
encoura@@ 206
fühlt 206
kraft@@ 206
ür@@ 206
stau@@ 206
enormous 206
pel 206
retten 206
bedingungen 206
markets 206
chemical 206
heu@@ 206
schutz 206
scri@@ 206
reaktion 206
keiner 206
occu@@ 206
sand@@ 206
produced 205
chtes 205
bac@@ 205
erinnere 205
co 205
police 205
tradition 205
emotion@@ 205
ever@@ 205
ue 205
sorry 205
führer 205
schluss 205
cold 205
ann 205
decade 205
schil@@ 205
va 205
währ@@ 205
poten@@ 205
typen 205
networks 205
speaking 205
shared 205
ham 205
sac@@ 205
vielfalt 204
vac@@ 204
sequence 204
photograph 204
conclu@@ 204
jer@@ 204
spreche 204
mitten 204
sung 204
schönen 204
benutz@@ 204
westen 204
capit@@ 204
blas@@ 204
ately 204
vollen 204
some@@ 203
erwarten 203
urban 203
195@@ 203
raise 203
creativity 203
thro@@ 203
regel@@ 203
fuhr 203
säu@@ 203
commit@@ 203
disappe@@ 203
aufgaben 203
univer@@ 203
z.b. 203
krise 203
festi@@ 203
atlan@@ 203
ge-@@ 202
bewe@@ 202
lasst 202
stattdessen 202
statt@@ 202
gent@@ 202
following 202
status 202
forth 202
unterschiedliche 202
netzwerk 202
chair 202
assu@@ 202
kun@@ 202
stun@@ 202
inspiri@@ 202
rock 202
mehrere 202
luft@@ 202
tac@@ 201
lights 201
vorzu@@ 201
jün@@ 201
unterschiede 201
television 201
recogni@@ 201
mp 201
keits@@ 201
cas@@ 201
unden 201
ong 201
fern 201
nes 201
forces 201
matically 201
temperature 201
veränderungen 201
bat 201
philosoph@@ 201
fit 201
enter@@ 201
forget 201
complete 201
nel 201
erfü@@ 201
sodass 201
alism 201
darwin 200
various 200
adop@@ 200
stär@@ 200
rechten 200
mente 200
wirken 200
organis@@ 200
gefä@@ 200
schützen 200
agree 200
wikipedia 200
erfolgreich 200
ebenfalls 200
glei@@ 200
n-@@ 200
fanta@@ 200
beschrei@@ 200
survive 200
comm@@ 200
near 199
essed 199
nasa 199
unfortunately 199
played 199
nahe 199
ganzes 199
profit 199
sische 199
angefangen 199
tes@@ 199
klima@@ 199
grundle@@ 199
inspired 199
nehme 199
useful 199
globale 199
bly 199
moder@@ 199
mögliche 199
gesellschaften 199
weite 199
hes 199
mr@@ 199
strukturen 199
amp 198
unique 198
birds 198
summer 198
maßen 198
levels 198
van 198
sse 198
regierungen 198
kün@@ 198
lieb@@ 198
surro@@ 198
zustellen 198
verrückt 198
geführt 198
medikamente 198
kostet 197
classi@@ 197
fundament@@ 197
jahrzehn@@ 197
financial 197
bewer@@ 197
erfunden 197
veröffent@@ 197
restaurant 197
chter@@ 197
digung 197
verein@@ 197
evolved 197
discover 197
path 197
ahnung 197
rufen 197
ruf 197
verbindungen 197
solar@@ 197
ep 197
ahead 197
öffentlichen 197
weib@@ 197
conflict 197
doctors 197
bäume 197
alisi@@ 197
sprech@@ 197
prü@@ 197
elektro@@ 197
final 197
sat 196
bemerkens@@ 196
geru@@ 196
jahrhunderts 196
5,000 196
loved 196
possibly 196
ana 196
physik 196
fen@@ 196
experim@@ 196
rever@@ 196
event 196
recent 196
pris@@ 196
bringing 196
trieb 196
union 196
moon 196
männ@@ 195
produktion 195
gste 195
höch@@ 195
bren@@ 195
soli@@ 195
gehe 195
helped 195
sle@@ 195
pfer@@ 195
leid 195
actions 195
jene 195
karten 195
hinder@@ 195
teams 195
rü@@ 195
plus 195
brenn@@ 195
elles 195
zeu@@ 195
miert 195
konzentrieren 195
negative 195
öffnet 195
finan@@ 195
deu@@ 195
element 195
0 195
jemandem 194
funny 194
indian 194
schritte 194
types 194
pair 194
amer@@ 194
band@@ 194
genom@@ 194
pher@@ 194
consciousness 194
verantwortung 194
phase 194
chs 194
tate 194
büro 194
steve 194
alternative 194
fes@@ 194
societies 194
schätzen 194
sis 194
directly 193
mostly 193
shel@@ 193
effects 193
jac@@ 193
john@@ 193
trei@@ 193
gere@@ 193
search 193
institutions 193
wichtigsten 193
demokra@@ 193
harvard 193
guter 193
ular 193
unterstützen 193
geschafft 193
tiv@@ 193
konsu@@ 192
fragt 192
heutigen 192
destro@@ 192
fres@@ 192
tran@@ 192
behandeln 192
mix@@ 192
erwä@@ 192
herzen 192
schlä@@ 192
agi@@ 192
institute 192
tausend 192
fabri@@ 192
einzigarti@@ 192
note 192
ol 192
hängt 192
dien@@ 192
ozean@@ 192
gender 192
hinein 192
apple 192
75 192
instrument 192
vin@@ 191
verk@@ 191
sign 191
öko@@ 191
extreme 191
entlich 191
detail 191
farben 191
wohin 191
ple 191
dische 191
eigenes 190
stecken 190
englisch 190
lebte 190
exten@@ 190
heat 190
evol@@ 190
tief 190
kosten@@ 190
obvious 190
terror@@ 190
ärzte 190
industrial 190
alization 190
sion@@ 190
ards 190
laptop 190
nahme 190
tür 190
francisco 190
graph 190
california 190
ruhi@@ 190
fran@@ 190
robert 190
career 189
anz 189
budget 189
intui@@ 189
hir@@ 189
gie 189
stance 189
sleep 189
hero@@ 189
workers 189
regel 189
nieder@@ 189
größeren 189
op 189
erleben 189
erungen 189
verwand@@ 189
echte 189
holt 189
uring 189
below 189
schlu@@ 189
carto@@ 189
institu@@ 189
nü@@ 189
waffen 188
ba 188
ams 188
privi@@ 188
phi@@ 188
ater 188
capital 188
onic 188
alismus 188
gefühle 188
glas@@ 188
year-old 188
bitten 188
senden 188
elli@@ 188
hig@@ 188
ted-@@ 188
digt 188
ological 188
afrikan@@ 188
zweitens 188
modelle 188
beu@@ 188
work@@ 187
vot@@ 187
ler@@ 187
challenges 187
erzeugt 187
trick 187
boot 187
wild 187
frieden@@ 187
intelligent 187
by@@ 187
wenden 187
zur@@ 187
daughter 187
terrible 187
twitter 187
wenige 187
focused 187
kern@@ 187
entwicklungs@@ 186
fuß@@ 186
häuser 186
entscheiden@@ 186
echt 186
tsch@@ 186
fortun@@ 186
term 186
gewä@@ 186
winter 186
ancient 186
2007 186
anima@@ 186
sischen 186
mond 186
ette 186
biological 186
circu@@ 186
mand@@ 186
governments 186
ii 186
geschah 186
bought 186
verbringen 186
entfern@@ 186
appar@@ 186
gebe 185
größere 185
valley 185
jam@@ 185
ließen 185
capacity 185
entscheidung 185
mili@@ 185
wee@@ 185
popular 185
explore 185
birth 185
brot 185
inspiration 185
oten 185
ping 185
agre@@ 185
rock@@ 185
laws 185
ased 185
wechsel@@ 185
stir@@ 185
schte 185
task 185
pic@@ 185
brauchte 184
willing 184
artists 184
unterneh@@ 184
fühlte 184
magne@@ 184
decide 184
wid@@ 184
fängt 184
eating 184
ameras 184
dep@@ 184
erlauben 184
zieh@@ 184
ah@@ 184
val 184
erfahrungen 184
materi@@ 184
rieben 184
entschied 184
decision 184
sigkeit 184
wunsch 184
ände 184
fenster 184
freunden 184
emer@@ 184
spec@@ 184
dar 184
seien 184
farm 184
expected 183
agen@@ 183
twice 183
träge 183
frühen 183
wahl@@ 183
blut@@ 183
alisierung 183
alter@@ 183
modi@@ 183
einkommen 183
inger 183
paid 183
folgendes 183
unbe@@ 182
immer@@ 182
fügen 182
neuronen 182
turning 182
gliche 182
character 182
designers 182
chr@@ 182
proto@@ 182
attac@@ 182
c. 182
loch 182
habt 182
ologists 182
barkeit 182
race 182
existiert 182
zwan@@ 182
enga@@ 182
kei@@ 182
hunder@@ 182
instance 182
rain 182
ink 182
causes 182
meters 182
islam 182
communication 182
konzentri@@ 182
dimensional 181
greif@@ 181
genutzt 181
gst 181
bir@@ 181
fort 181
gold 181
dest@@ 181
hot@@ 181
infrastructure 181
kommunikation 181
verfügung 181
gsten 181
erstaunlich 181
begonnen 181
vorbei 181
weiss 181
push 181
stock 181
mark@@ 181
imag@@ 181
complexity 181
flu 181
prob@@ 181
shed 181
shir@@ 181
sphere 181
pa 181
achten 181
purpose 181
beeinflusst 181
yers 181
10,000 181
trial 180
blau@@ 180
worry 180
spending 180
berühm@@ 180
efficient 180
tag@@ 180
staat 180
dying 180
selts@@ 180
struk@@ 180
ware 180
förder@@ 180
enting 180
carry 180
link 180
ami 180
closer 180
erstaun@@ 180
pressure 180
anti-@@ 180
predic@@ 180
reak@@ 180
erstes 180
cros@@ 180
nungen 180
break@@ 180
straight 180
augen@@ 180
plac@@ 180
chin@@ 180
00@@ 179
produziert 179
schwi@@ 179
ität 179
cell@@ 179
ef@@ 179
wirtschaft@@ 179
küste 179
slightly 179
nissen 179
mountain 179
tritt 179
sicherlich 179
sa 179
prakti@@ 179
quote 179
alle@@ 179
secret 179
blä@@ 179
accu@@ 179
runter 179
rema@@ 179
lauf 179
gran@@ 179
sucht 179
promis@@ 179
acade@@ 178
charge 178
daß 178
ours 178
drop 178
üs@@ 178
losen 178
gate 178
river 178
bers 178
regu@@ 178
decades 178
diseases 178
instal@@ 178
devices 178
molecules 178
amerikanische 178
low-@@ 178
höhe 178
flexi@@ 178
subje@@ 178
prize 178
surprising 178
sche@@ 178
modernen 177
gui@@ 177
nächstes 177
spre@@ 177
sal 177
cortex 177
stal@@ 177
ji@@ 177
puzz@@ 177
ine@@ 177
ency 177
recht@@ 177
wörter 177
gem 177
astero@@ 177
vering 177
u.@@ 177
glaubt 177
universi@@ 177
leg 177
youtube 177
einhalb 177
address 177
16@@ 177
pon@@ 177
bildungs@@ 177
passi@@ 177
feu@@ 176
broken 176
ernst 176
hte 176
funk@@ 176
cate 176
lets 176
brilliant 176
stücke 176
zug 176
orien 176
politischen 176
innen@@ 176
komplexität 176
tolle 176
gewebe 176
adap@@ 176
zeug@@ 176
zusammenhang 176
que@@ 176
desto 176
nord@@ 176
investieren 176
citizens 176
hart 176
gelöst 176
begeg@@ 176
dorthin 176
kreativität 176
besor@@ 175
memory 175
infrastruktur 175
brie@@ 175
drin@@ 175
manipu@@ 175
erinnert 175
schwester 175
quick 175
integri@@ 175
sekunde 175
acting 175
bert 175
inse@@ 175
ökonom@@ 175
check 175
schafts@@ 175
descri@@ 175
connec@@ 175
garten 175
tochter 175
ecke 175
verfolgen 174
fernsehen 174
ech@@ 174
educ@@ 174
1,000 174
dence 174
coffee 174
persön@@ 174
politische 174
nat@@ 174
ungspro@@ 174
ries@@ 174
stie@@ 174
tis@@ 174
significant 174
published 174
beteili@@ 174
trouble 174
ority 174
law@@ 174
atmosphere 174
answers 174
schrift 174
baut 174
archi@@ 174
fuß 174
2010 174
aro@@ 174
magazine 174
zone 174
wirst 174
degrees 174
unsicht@@ 173
linken 173
orche@@ 173
nähe 173
entdeck@@ 173
calls 173
fäl@@ 173
memor@@ 173
fühle 173
fühl@@ 173
wuchs 173
hnt 173
impli@@ 173
eding 173
cham@@ 173
familien@@ 173
weiterhin 173
schien 173
phili@@ 173
wach@@ 173
pakistan 173
somit 173
impf@@ 173
zierte 173
schutz@@ 173
zehn@@ 173
freien 173
chri@@ 173
tremendous 173
zog 173
predi@@ 173
ening 172
apart 172
rooms 172
pati@@ 172
botschaft 172
ausdruck 172
wen 172
supply 172
einfach@@ 172
medium 172
achie@@ 172
tail 172
corpo@@ 172
feuer 172
ausbildung 172
reisen 172
deutlich 172
justice 172
hur@@ 172
miss@@ 172
gam@@ 172
teren 172
ansatz 172
baum 171
oxygen 171
stron@@ 171
conne@@ 171
passed 171
esses 171
stag 171
designs 171
hearing 171
crimin@@ 171
profession@@ 171
affen 171
const@@ 171
kontrollieren 171
jon@@ 171
dea@@ 171
gehalten 171
worst 171
effekt 171
ples 171
feedback 171
bridge 171
nütz@@ 171
boston 171
däch@@ 171
gebäu@@ 170
rational 170
assem@@ 170
suppor@@ 170
zerstör@@ 170
stuhl 170
ermöglichen 170
wissenschaftliche 170
ear 170
smar@@ 170
leads 170
pin@@ 170
counter@@ 170
bruch 170
creates 170
budd@@ 170
speci@@ 170
edge 170
interven@@ 170
tissue 169
gradu@@ 169
differences 169
dire@@ 169
materie 169
sely 169
ungsk@@ 169
ables 169
collabor@@ 169
sites 169
technologi@@ 169
weiten 169
verur@@ 169
verursacht 169
verrück@@ 169
irgendwann 169
brown 169
prot@@ 169
werkzeug 169
improve 169
bares 169
electric 169
gelegt 169
riesigen 169
nations 169
töten 169
mming 169
bildern 169
fying 169
ologi@@ 169
relevant 169
structures 169
ück@@ 169
engli@@ 169
gestal@@ 169
communicate 169
notion 169
kreu@@ 169
erungs@@ 168
aut 168
travel@@ 168
wärts 168
organi@@ 168
inno@@ 168
toll@@ 168
funktion 168
trotz 168
universums 168
trie@@ 168
stolz 168
haufen 168
offen 168
risiko 168
benötigen 168
tiver 168
tory 168
flies 168
gewonnen 168
quelle 168
allerdings 168
männern 168
treib@@ 168
noticed 168
dok@@ 168
repe@@ 168
wald 168
bestehen 168
besonder@@ 168
responsibility 168
stances 168
dennoch 167
verkauft 167
fix 167
2005 167
tür@@ 167
gemeinde 167
aktivität 167
fleisch 167
kriegen 167
accep@@ 167
tei@@ 167
natürliche 167
arme 167
bird 167
problemen 167
asia 167
vege@@ 167
durchschnitt@@ 167
linien 167
begriff 167
laun@@ 167
tle 167
portra@@ 167
erwartet 167
phenomenon 167
wächst 167
gend@@ 167
gesetze 167
hotel 167
wiederum 166
rt 166
insu@@ 166
farmers 166
cious 166
epide@@ 166
bot 166
organisms 166
ate@@ 166
massen@@ 166
grenze 166
seemed 166
stige 166
haiti 166
nerven@@ 166
hall 166
einfacher 166
setzung 166
imagination 166
pus@@ 166
reagieren 166
toler@@ 166
de-@@ 166
kenne 166
roten 166
dent@@ 166
helping 165
&apos;@@ 165
tivität 165
direc@@ 165
colleagues 165
limit@@ 165
filme 165
schaft@@ 165
inner 165
sterne 165
pose 165
vorstell@@ 165
paradig@@ 165
easily 165
entstehen 165
marketing 165
willi@@ 165
hoffentlich 165
fotogra@@ 165
vorberei@@ 165
benötigt 165
meas@@ 165
kreis 165
british 165
dagegen 165
aufgenommen 164
erforschen 164
dimension@@ 164
sozusagen 164
aufnahme 164
stands 164
programs 164
bay 164
verbesser@@ 164
invest@@ 164
religious 164
drü@@ 164
possibility 164
tially 164
selber 164
astronom@@ 164
studying 164
dopp@@ 164
planets 164
anten@@ 164
ford 164
letztendlich 164
thy 164
opti@@ 164
ingt 164
management 164
feels 164
plo@@ 164
gestalten 164
ists 164
entwickelten 164
p-@@ 164
corner 164
ins@@ 163
eis@@ 163
flight 163
fellow 163
14@@ 163
rhyth@@ 163
städten 163
nearly 163
shift 163
möglicherweise 163
achieve 163
condition 163
cyber@@ 163
centi@@ 163
oth 163
interpre@@ 163
äuß@@ 163
republi@@ 163
las 163
giant 163
blog 163
deser@@ 163
rad 163
ought 163
necessarily 163
particles 163
consu@@ 163
objekte 163
klang 163
mov@@ 163
motion 163
window 162
core 162
.com 162
deut@@ 162
painting 162
communic@@ 162
ade@@ 162
bo 162
standen 162
religiö@@ 162
open-@@ 162
addi@@ 162
erfin@@ 162
kehren 162
behalten 162
wide 162
beschäftigt 162
tradi@@ 162
gebiete 162
wahrscheinlichkeit 162
architec@@ 162
organizations 162
twi@@ 162
ele 162
partner@@ 162
davor 162
quali@@ 162
post@@ 162
brand 162
pounds 162
scot@@ 162
defin@@ 162
landscape 161
defen@@ 161
acht@@ 161
yl@@ 161
klimawandel 161
plu@@ 161
regen@@ 161
wom@@ 161
shop 161
atur 161
mol@@ 161
met@@ 161
entlang 161
gur@@ 161
hair 161
onie 161
boat 161
yle 161
return 161
figured 161
pump@@ 161
saß 161
dauert 161
process@@ 161
versorgung 161
accoun@@ 161
nahrungs@@ 160
einsatz 160
discovery 160
iraq 160
reduce 160
bia 160
wind@@ 160
beine 160
ela 160
klingt 160
alien 160
choices 160
rand@@ 160
jährigen 160
forscher 160
streets 160
chicago 160
throw 160
ckten 160
civil 160
symbo@@ 160
zurückzu@@ 160
engine 160
blog@@ 160
bone 160
bush 160
bürger 160
besser@@ 160
knowing 160
ir 160
sparen 160
jahres 160
rab@@ 160
beschle@@ 159
fortschritt 159
report 159
finished 159
vergleich 159
yn@@ 159
perspektive 159
lucky 159
moments 159
stad@@ 159
21 159
dom 159
ar-@@ 159
mach 159
hunger 159
laut 159
xes 159
net@@ 159
schwei@@ 159
highly 159
legal 159
gelangen 159
neighb@@ 159
verdienen 159
obama 159
atmosphäre 159
via 158
necessary 158
dents 158
zuhause 158
opportunities 158
thir@@ 158
resol@@ 158
iled 158
aktivi@@ 158
nutri@@ 158
süd@@ 158
gedanke 158
relationships 158
erstellen 158
dieselbe 158
stopped 158
hn 158
soldaten 158
pollen 158
gress 158
finanz@@ 158
allo@@ 158
gressi@@ 158
statisti@@ 158
coast 158
einzi@@ 158
attemp@@ 158
selb@@ 158
coo@@ 158
plä@@ 158
produk@@ 158
fau@@ 158
lun@@ 158
gestern 158
fotografi@@ 158
lok@@ 158
todes@@ 158
forever 157
gelassen 157
herausgefunden 157
dop@@ 157
consum@@ 157
benefit 157
prison 157
fication 157
ändert 157
aufre@@ 157
tee 157
train@@ 157
versus 157
organic 157
2-@@ 157
paris 157
yellow 157
moleküle 157
whi@@ 157
g-@@ 157
kräfte 157
interact 157
vollständig 157
steuern 157
port 157
golf 157
schlag@@ 157
rain@@ 157
intelligenz 157
fiel 157
puts 157
worüber 157
verdi@@ 156
setzte 156
hai 156
exponenti@@ 156
gewi@@ 156
hirn@@ 156
ücken 156
card 156
hell 156
differently 156
temperatur 156
eline 156
anth@@ 156
jährige 156
iges 156
brief 156
sommer 156
geno@@ 156
ya 156
erleb@@ 156
großbritannien 156
arian 156
bie@@ 156
intensi@@ 156
scheinen 156
ernsthaf@@ 156
missing 156
despite 156
teen@@ 156
stress 156
fossi@@ 156
schalten 156
lautet 156
ury 156
zukünf@@ 155
buchstäblich 155
obs@@ 155
respect 155
engage 155
experten 155
members 155
organismen 155
foreign 155
transformation 155
kür@@ 155
iel 155
custom@@ 155
ering 155
bled 155
inti@@ 155
noise 155
zun@@ 155
ultimately 155
rot 155
stin 155
rö@@ 155
origin@@ 155
vollkommen 155
erfol@@ 155
chaos 155
defini@@ 155
alisieren 155
ti 155
kontrolli@@ 155
lying 155
ior 155
bewegungen 155
brings 155
kombin@@ 154
effort 154
extre@@ 154
untersu@@ 154
fach@@ 154
oll@@ 154
darf 154
interface 154
kurzem 154
attack 154
methoden 154
cial 154
moves 154
steigt 154
00 154
scen@@ 154
cool@@ 154
themen 154
passionate 154
ultra@@ 154
kommunizieren 154
verschie@@ 154
rus 154
strategi@@ 154
heili@@ 154
instin@@ 154
sitzt 154
russi@@ 154
zusammenarbeit 154
ily 154
bread 154
wesentlichen 154
gli@@ 154
teilchen 154
arms 154
komm@@ 154
ala 154
steh@@ 154
cker@@ 154
ager 154
lungen 154
spor@@ 154
gon@@ 153
betr@@ 153
comfortable 153
teste 153
cloud 153
symptom@@ 153
colum@@ 153
zon 153
tauchen 153
surge@@ 153
monit@@ 153
gilt 153
behandelt 153
äf@@ 153
visit 153
phänomen 153
reve@@ 153
jungs 153
durchgeführt 153
räume 153
join 153
berü@@ 153
kauft 153
schlie@@ 153
stru@@ 153
weiteren 153
leading 153
gical 153
mathematics 153
dh 152
landschaft 152
2.@@ 152
agriculture 152
benefits 152
tial 152
ania 152
präsident 152
resul@@ 152
unterstützung 152
elements 152
sozial@@ 152
meistens 152
bezahlen 152
hielten 152
fiziert 152
ili@@ 152
assi@@ 152
absolute 152
virg@@ 152
entwerfen 152
2009 152
ght-@@ 152
sculp@@ 152
sogenan@@ 152
covered 152
fairly 152
lesson 152
karriere 152
lic@@ 152
emotions 152
besseren 152
tures 152
cide 152
ght@@ 151
meilen 151
engineers 151
tis 151
fix@@ 151
ologist 151
electro@@ 151
heads 151
wunderbare 151
urs 151
zus@@ 151
-year-old 151
hinein@@ 151
base 151
virtual 151
wisdom 151
helps 151
wahre 151
tations 151
beeinflussen 151
lichsten 151
kontakt 151
meister 151
ens@@ 151
antly 151
fashion 151
unbedingt 151
anwen@@ 151
konfli@@ 151
fields 151
theore@@ 151
calcul@@ 151
u-@@ 150
entwickelte 150
cation 150
contra@@ 150
spä@@ 150
saving 150
bees 150
bility 150
landwirtschaft 150
besitzen 150
polio 150
titude 150
walls 150
hohen 150
starb 150
gefängnis 150
stufe 150
setz@@ 150
french 150
ution 150
expla@@ 150
figu@@ 150
19 150
kümmern 150
peter 150
veröffentlicht 150
20. 150
trauri@@ 150
emplo@@ 150
nah 150
erkrank@@ 150
suffering 150
happ@@ 150
introdu@@ 150
vermutlich 150
fragten 150
orienti@@ 150
sahar@@ 150
kommuni@@ 150
load 150
gras 150
cle 149
asien 149
matters 149
vat@@ 149
conscious 149
zufällig 149
ök@@ 149
wonder@@ 149
slowly 149
appreci@@ 149
hauptsächlich 149
afford 149
typical 149
derzeit 149
spring 149
shares 149
mouse 149
apply 149
welchen 149
ome 149
zung 149
bling 149
ziele 149
ple@@ 149
begren@@ 149
gy@@ 149
supp@@ 149
vermu@@ 149
expec@@ 149
mischen 149
afraid 149
diplo@@ 149
fähi@@ 149
degree 149
motor@@ 149
fold 149
klin@@ 149
engineer 149
mom@@ 149
lim@@ 149
fighting 149
extin@@ 149
reicht 149
ski@@ 149
rief 149
hard@@ 149
krebs@@ 149
stens 149
og@@ 148
olymp@@ 148
adults 148
schwarze 148
rein 148
gun 148
wandel 148
milliarde 148
arbeiter 148
dritten 148
geschä@@ 148
geschen@@ 148
hergestellt 148
crime 148
female 148
mothers 148
sity 148
reas@@ 148
expres@@ 148
gift 148
viren 148
laufe 148
traffic 148
responsible 148
alisiert 148
ath 148
filled 148
isra@@ 148
nochmal 148
ktionen 148
kontro@@ 148
concent@@ 148
photo 148
charak@@ 148
organ 148
geschi@@ 148
experimente 148
titel 148
events 148
3d 148
billions 148
sir 148
creatures 148
gelan@@ 148
adam 147
kehr@@ 147
uganda 147
suit 147
arm@@ 147
schicht 147
brother 147
konstru@@ 147
gezogen 147
ish@@ 147
irgendetwas 147
norden 147
priv@@ 147
perfekt 147
tricks 147
entsteht 147
tierte 147
investment 147
yn 147
pharma@@ 147
chromo@@ 147
tie@@ 147
großteil 147
recei@@ 147
tim 147
s. 147
raised 147
jung@@ 147
constru@@ 146
überzeugt 146
hohe 146
fascinating 146
beschreiben 146
bü@@ 146
home@@ 146
weiteres 146
habit@@ 146
2,@@ 146
zierten 146
mexico 146
gentle@@ 146
cheap 146
competition 146
ves@@ 146
separ@@ 146
gab@@ 146
dient 146
lady 146
vö@@ 146
graben 146
ison 146
color@@ 146
fung 146
phen 146
warm 146
zuhören 146
chip 146
außen@@ 146
are@@ 146
compar@@ 146
roll 146
broad@@ 146
nel@@ 146
capable 146
überzeugen 146
calcu@@ 146
aktiv 146
iphone 146
gegensei@@ 146
alize 146
atz 146
mengen 146
umgehen 146
geschle@@ 146
lot@@ 146
bekannten 146
begins 146
simul@@ 146
gelesen 146
vergleichen 146
distance 145
ace 145
experiences 145
stig 145
and-@@ 145
elten 145
leb@@ 145
simpli@@ 145
identity 145
gation 145
neugi@@ 145
mitg@@ 145
ried 145
statistics 145
noten 145
sick 145
dry 145
stür@@ 145
activ@@ 145
caught 145
betrifft 145
influence 145
ki 145
sy 145
easier 145
hopefully 145
älter 145
autis@@ 145
thri@@ 145
lass 145
fill 145
sector 145
woher 145
vast 145
texas 144
zig 144
profound 144
poly@@ 144
erenden 144
neuer 144
wissenschaftlichen 144
nega@@ 144
gif@@ 144
gewissen 144
stopp@@ 144
contro@@ 144
schö@@ 144
facili@@ 144
vern@@ 144
ota 144
cont@@ 144
dio@@ 144
duc@@ 144
gren@@ 144
endet 144
ständen 144
respond 144
behand@@ 144
täglich 144
morgens 144
rup@@ 144
motivation 144
holding 144
hou@@ 144
diam@@ 144
hell@@ 144
embra@@ 144
institution 144
wr@@ 144
leaving 144
impres@@ 144
colors 144
unterschiedlichen 144
pyrami@@ 144
verhindern 143
elemente 143
erster 143
separate 143
rahmen 143
übertragen 143
herunter@@ 143
basiert 143
korea 143
gehei@@ 143
quie@@ 143
dritt@@ 143
mouth 143
lou@@ 143
vertei@@ 143
compe@@ 143
circle 143
brachten 143
2,000 143
präsentiert 143
trend 143
astro@@ 143
ai 143
promise 143
wit@@ 143
th-@@ 143
werten 143
spirit 143
kurze 143
verbracht 143
erende 143
wirtschaftlichen 143
lieber 143
bett 143
galaxy 143
mär@@ 143
wohner 143
kenn@@ 143
unabhängi@@ 143
uner@@ 143
rid 143
quanti@@ 143
meat 143
lernt 143
zeugen 143
kid@@ 143
grand 142
flächen 142
economics 142
church 142
25@@ 142
desert 142
dieren 142
enjoy 142
post 142
stoßen 142
powered 142
kee@@ 142
fischen 142
zin 142
mates 142
fif@@ 142
tting 142
ome@@ 142
concep@@ 142
weder 142
dank@@ 142
vement 142
breast 142
stö@@ 142
spli@@ 142
anderem 142
ites 142
stein@@ 142
tradition@@ 142
begeistert 142
drittel 142
erkannte 142
dahin 142
gefahr 142
könnt 142
teu@@ 142
toi@@ 142
pingu@@ 142
tue 142
werke 142
tured 142
nee 142
fordert 142
plane 141
campaign 141
ite 141
offer 141
sequen@@ 141
determin@@ 141
normale 141
trained 141
paint 141
importantly 141
arbeiteten 141
speech 141
handel 141
aci@@ 141
sowie 141
proble@@ 141
count 141
theit 141
nom@@ 141
schwimmen 141
yo 141
falsche 141
gespielt 141
mütter 141
wunderbar 141
juli@@ 141
describe 141
studied 141
anten 141
otherwise 141
symbol 141
lig 141
ritual 141
measu@@ 141
mail 141
hinweg 141
allge@@ 141
technolog@@ 141
progra@@ 141
gerü@@ 141
neten 141
buch@@ 141
einsetzen 141
außer@@ 141
aufnahmen 141
pig@@ 141
jum@@ 141
sold 141
atem@@ 141
22 141
steller 141
names 141
dreams 141
spiegel 141
absor@@ 141
insekten 141
shouldn 141
gkeiten 140
netzwerke 140
shar@@ 140
normally 140
erzähle 140
wachen 140
mix 140
gerung 140
derek 140
bi 140
scha@@ 140
kennt 140
invisible 140
dürfen 140
sichten 140
brauchten 140
wear 140
telescop@@ 140
brust@@ 140
invest 140
art@@ 140
bildschirm 140
häl@@ 140
cele@@ 140
krimin@@ 140
klassen@@ 140
errei@@ 140
insects 140
echten 140
verbreitet 140
diabetes 140
indu@@ 140
gelei@@ 140
hintergrund 140
dicht 140
belief 140
27 140
occur@@ 140
2004 140
mel 139
intelligen@@ 139
häu@@ 139
beat 139
sister 139
fund 139
lic 139
mitteln 139
independent 139
spir@@ 139
wave 139
starke 139
sudden 139
beach 139
consumption 139
führten 139
spac@@ 139
principles 139
sterb@@ 139
email 139
patent 139
int 139
malen 139
aling 139
universal 139
verlangen 139
ungskraft 139
arc@@ 139
institutionen 139
ologe 139
warming 139
griff 139
therapy 139
catch 139
entwickl@@ 139
challen@@ 139
placed 138
zauber@@ 138
factory 138
volu@@ 138
fördern 138
everyday 138
büro@@ 138
seriously 138
steps 138
behör@@ 138
sor 138
speak@@ 138
molecule 138
damage 138
lebten 138
95 138
tus 138
kolle@@ 138
stimu@@ 138
dungs@@ 138
großarti@@ 138
bee@@ 138
akt 138
kön@@ 138
stenz 138
ktiv 138
blei@@ 138
letzt 138
camp 138
geogra@@ 138
lachen 138
schri@@ 138
tem@@ 138
gens 138
praktisch 138
airplane 138
inci@@ 138
graphi@@ 138
ishing 138
strö@@ 138
opposite 137
zeitalter 137
professional 137
operating 137
tiefe 137
fit@@ 137
bereiche 137
kompon@@ 137
gewisse 137
languages 137
compli@@ 137
entirely 137
tons 137
sky@@ 137
disco@@ 137
schlei@@ 137
dene 137
infin@@ 137
eingesetzt 137
forschungs@@ 137
dolph@@ 137
bf 137
creation 137
gabe 137
erweiter@@ 137
bauern 137
lack 137
itäten 137
inn 137
transform 137
isch@@ 137
wurz@@ 137
hund 137
civilization 137
elegan@@ 137
dichte 137
stuck 136
appli@@ 136
jud@@ 136
geladen 136
blut 136
dienst@@ 136
ception 136
gehabt 136
spot 136
fingen 136
kers 136
limited 136
hmen 136
une 136
vermögen 136
ungewöhn@@ 136
worl@@ 136
func@@ 136
cers 136
richtet 136
option 136
geld@@ 136
husband 136
ld 136
dp 136
yesterday 136
master 136
angel@@ 136
controll@@ 136
frank 136
keeping 136
small@@ 136
nannte 136
emotion 136
bles 136
rücken 136
glas 136
analysis 136
cken@@ 136
deliver 135
match 135
verwandeln 135
erfolgrei@@ 135
kni@@ 135
reli@@ 135
alleine 135
bestimmen 135
background 135
dynamic 135
concerned 135
geburt 135
geheim@@ 135
recycl@@ 135
zubringen 135
poster 135
atta@@ 135
kogni@@ 135
photos 135
argue 135
tain@@ 135
raus@@ 135
player 135
ene@@ 135
viruses 135
fell 135
menten 135
samer 135
commercial 135
spit@@ 135
ktiven 135
cis@@ 135
ference 135
integra@@ 135
principle 135
article 135
acceler@@ 135
emergen@@ 135
kürzlich 135
herr 135
interessieren 135
desire 135
drän@@ 135
invi@@ 135
schaute 135
distribu@@ 135
wirkt 134
sichtlich 134
inen 134
autor@@ 134
qua@@ 134
einander@@ 134
10.000 134
2006 134
blick@@ 134
free@@ 134
getötet 134
propor@@ 134
automo@@ 134
opini@@ 134
deeply 134
tot@@ 134
ough 134
ograph@@ 134
mid@@ 134
toward 134
wahrnehmung 134
herausforderungen 134
fing@@ 134
viet@@ 134
horri@@ 134
therapie 134
fett@@ 134
play@@ 134
opened 134
tural 134
versuchten 134
esse 134
janu@@ 134
gehirne 134
verbreiten 134
kurz@@ 134
träume 134
behinder@@ 134
verzwei@@ 134
ägyp@@ 134
sweise 134
knochen 134
standar@@ 134
leistungen 134
managed 134
advantage 134
1. 134
sorge 134
hate 134
designing 134
kalifornien 134
clou@@ 134
täten 134
believed 134
65 134
partici@@ 134
winkel 134
glücklicherweise 134
olog@@ 134
schlimm@@ 134
ierten 134
bol@@ 133
dium 133
deckt 133
abhängig 133
letter 133
aug@@ 133
vir@@ 133
nah@@ 133
atten@@ 133
pfei@@ 133
anony@@ 133
equal 133
ko 133
tomorrow 133
ories 133
wichti@@ 133
exhi@@ 133
disku@@ 133
gese@@ 133
majority 133
gebro@@ 133
sport 133
gehören 133
oceans 133
treibt 133
wenig@@ 133
verantwortlich 133
spaces 133
forma@@ 133
pages 133
stung 133
tnis 133
predict 133
liebt 133
increasingly 133
telefon 133
bekamen 133
erklär@@ 133
childhood 133
ähnliche 133
mäß@@ 133
dinner 133
stit@@ 133
nets 133
lichem 133
angeles 133
evil 133
händen 133
ingu@@ 133
whenever 133
failed 133
irak 133
ok@@ 133
bemerkt 133
platt@@ 133
umge@@ 133
followed 133
hang 133
erstaunliche 133
electrical 133
narra@@ 133
zählen 133
opfer 133
fährt 133
driven 132
gewand@@ 132
moderne 132
aufhören 132
fünf@@ 132
edu@@ 132
drin 132
teilung 132
nes@@ 132
gere 132
surprise 132
ills 132
dialo@@ 132
generate 132
influ@@ 132
cer 132
spruch 132
sensi@@ 132
yor@@ 132
eland 132
babys 132
voices 132
chemi@@ 132
erkenntnis 132
doppelt 132
insel 132
organized 132
vertrau@@ 132
wahren 132
opening 132
elektron@@ 132
aner 132
vögel 132
öffentlichkeit 132
dienen 132
bauten 132
thinks 132
streben 132
weißen 131
kontext 131
legi@@ 131
soil 131
weißt 131
23 131
random 131
wearing 131
stian 131
tiges 131
perfectly 131
nutzt 131
impul@@ 131
adi@@ 131
due 131
participa@@ 131
wealth 131
ald 131
oxford 131
maus 131
pus 131
vo 131
direct 131
origami 131
cen 131
vice 131
according 131
gates 131
whom 131
entreprene@@ 131
trip 131
tent@@ 131
bloß 131
sw 131
chten@@ 131
stigen 131
tigung 131
maker 131
genauer 131
post-@@ 131
berg@@ 131
kus@@ 131
kung 131
2003 131
secon@@ 131
constantly 131
rand 131
signals 130
approach@@ 130
gemü@@ 130
militär@@ 130
atures 130
handy 130
cents 130
mut 130
prop@@ 130
brow@@ 130
überprü@@ 130
define 130
humor 130
l-@@ 130
äne 130
überrascht 130
zeichnungen 130
practic@@ 130
robot@@ 130
heal@@ 130
fourth 130
künstler@@ 130
wachsen@@ 130
tischer 130
ery 130
bedeuten 130
sign@@ 130
inspiriert 130
jump 130
klini@@ 130
seas@@ 130
kins 130
ameisen 130
prevent 130
heits@@ 130
eindruck 130
kurs 130
erseits 130
schmerz 130
rechts@@ 130
geschickt 130
drawing 130
trie 130
chap@@ 130
graduate 130
survival 130
transition 130
failure 130
care@@ 130
phan@@ 130
tern@@ 130
meta@@ 130
cognitive 130
guar@@ 130
miss 129
bag@@ 129
lieblings@@ 129
ppt 129
harder 129
früh 129
isol@@ 129
dimensions 129
gegenteil 129
normalen 129
wisst 129
navi@@ 129
bezahlt 129
kurzen 129
martin 129
currently 129
motiv@@ 129
öffentliche 129
erer 129
signale 129
dauern 129
gry 129
emis@@ 129
compare 129
stock@@ 129
ön@@ 129
corruption 129
shif@@ 129
2001 129
unternehmer 129
ansicht 129
unless 129
privat@@ 129
ghana 129
volunte@@ 129
polizei 129
equivalent 129
journalist 129
secre@@ 129
europä@@ 129
194@@ 129
beeindruck@@ 129
interagieren 129
sty 129
sim@@ 129
stimm@@ 129
bienen 128
grün 128
eure 128
zten 128
wiesen 128
verhältnis 128
probe 128
250 128
metaphor 128
körpers 128
classroom 128
gather@@ 128
alisten 128
athei@@ 128
cans 128
verschwinden 128
explan@@ 128
normal@@ 128
roots 128
producing 128
stabili@@ 128
ordinary 128
erst@@ 128
lebewesen 128
gefahren 128
library 128
schaf@@ 128
friend@@ 128
läch@@ 128
leadership 128
diagra@@ 128
wa 128
goo@@ 128
iso@@ 127
gespräch 127
wegs 127
galaxies 127
schlüssel@@ 127
ernährung 127
experts 127
markt@@ 127
illusion 127
stran@@ 127
digit@@ 127
fahrer 127
raft 127
verbindet 127
lear@@ 127
deinen 127
mie 127
army 127
mindestens 127
photo@@ 127
blogs 127
tanz 127
microsoft 127
leaves 127
barer 127
starten 127
syl@@ 127
erscheinen 127
wake 127
verwal@@ 127
aufbauen 127
bietet 127
cular 127
cky 127
identität 127
chil@@ 127
affect 127
cel@@ 127
gay 127
gesetz@@ 127
erklärung 127
brauche 126
tour 126
one@@ 126
rural 126
actor 126
keys 126
chts 126
ffe@@ 126
lichkeiten 126
distribution 126
akzep@@ 126
steel 126
meiste 126
d. 126
shall 126
werbung 126
weird 126
musst 126
lunch 126
exists 126
invited 126
verkauf@@ 126
gain 126
worried 126
harmon@@ 126
mee 126
konzep@@ 126
grundlegende 126
persönliche 126
worldwide 126
sphäre 126
existieren 126
fisch@@ 126
gäbe 126
an-@@ 126
tough 126
horizon@@ 126
caused 126
drink 126
kopf@@ 126
verhaltens@@ 126
d.@@ 126
individuen 126
treated 126
haltung 126
sauerstoff 126
stent 126
ktive 126
succe@@ 126
gesprä@@ 126
häufig 126
admini@@ 126
terie 126
sicherheits@@ 126
verschmu@@ 126
vorteil 126
seitdem 126
gestorben 126
hoffen 125
sz@@ 125
tzlich 125
suppose 125
orig@@ 125
enz@@ 125
holes 125
fizieren 125
tur 125
compared 125
angenommen 125
wars 125
baum@@ 125
kenya 125
artificial 125
standards 125
seat 125
pet 125
activi@@ 125
temper@@ 125
pes 125
hidden 125
sever@@ 125
ulti@@ 125
unterscheiden 125
multiple 125
höher 125
verschieden@@ 125
gegensatz 125
erhält 125
32 125
appl@@ 125
continent 125
spra@@ 125
schreib@@ 125
paying 125
autonom@@ 125
h-@@ 125
anrei@@ 125
japan@@ 125
shapes 125
stanford 125
schlechten 125
reduzieren 125
nant 125
generationen 125
erfinden 125
pfe 125
garden 125
debate 125
refer@@ 124
businesses 124
japanese 124
regen 124
augenblick 124
wein@@ 124
trends 124
anthropo@@ 124
innovative 124
threat 124
schlüssel 124
skep@@ 124
strategie 124
blü@@ 124
eleph@@ 124
layer 124
igkeit 124
canada 124
krank@@ 124
trug 124
wri@@ 124
chem 124
berührt 124
shoes 124
gieren 124
debat@@ 124
planning 124
inneren 124
han 124
schnell@@ 124
krank 124
best@@ 124
lager 124
echn@@ 124
äd@@ 124
chron@@ 124
gand@@ 124
fernseh@@ 124
european 124
weapons 124
real@@ 124
double 124
komplexe 124
oned 124
construction 124
kulturen 124
unding 124
negoti@@ 124
vehicle 124
hasn 124
leiten 124
einheit 124
kus 124
rätsel 124
circum@@ 123
acts 123
beob@@ 123
sec@@ 123
fan 123
ay 123
embar@@ 123
gegenwär@@ 123
mobili@@ 123
manhattan 123
super 123
bright 123
drückt 123
doku@@ 123
toren 123
näher@@ 123
klar@@ 123
fire@@ 123
represent 123
relativ 123
arkti@@ 123
marine 123
brech@@ 123
develop@@ 123
kari@@ 123
nachbar@@ 123
thesis 123
schni@@ 123
nieman@@ 123
itä@@ 123
mmen 123
chemicals 123
blocks 123
waves 123
anischen 123
appear 123
täusch@@ 123
establi@@ 123
appro@@ 123
benen 123
blau 123
wea@@ 123
joy 123
geome@@ 123
beg@@ 123
märkte 123
expression 123
abschluss 123
beschäf@@ 123
muscle 123
copy 123
neighborhood 123
wis@@ 123
heisst 123
lebenden 123
ols 123
deta@@ 123
welle 123
beginn@@ 123
einiger 123
eric 123
unterschie@@ 123
bed@@ 123
musik@@ 123
arbeit@@ 123
cure 123
tenden@@ 123
-up 123
contr@@ 123
20th 123
bet 122
entschei@@ 122
melt 122
incre@@ 122
wobei 122
strategy 122
schneiden 122
phosp@@ 122
bear 122
hmt 122
syndro@@ 122
sequenzen 122
dä@@ 122
beweg@@ 122
described 122
nden 122
weather 122
bekann@@ 122
elling 122
popu@@ 122
sna@@ 122
transl@@ 122
pre-@@ 122
interview 122
nest 122
than@@ 122
preser@@ 122
mobil@@ 122
alex@@ 122
forder@@ 122
riff 122
proud 122
collect 122
systemen 122
mentioned 122
facts 122
nai@@ 122
annehmen 122
strate 122
parti@@ 122
coura@@ 122
wichtigen 122
tumor@@ 122
nationen 122
züge 122
faktor 122
mortality 122
ration@@ 122
highest 122
emotionen 122
jugend@@ 122
collective 122
zunehmen@@ 122
brasili@@ 121
dran 121
drüben 121
bedarf 121
feelings 121
beglei@@ 121
wenigen 121
chicken 121
experiment@@ 121
brothers 121
kap@@ 121
kunft 121
wechseln 121
alist 121
mas 121
bahn@@ 121
beschrän@@ 121
worfen 121
spüren 121
upp@@ 121
sub-@@ 121
britain 121
cock@@ 121
gefährlich 121
tox@@ 121
wunden 121
honest 121
alists 121
vote 121
crow@@ 121
proce@@ 121
dach 121
pole 121
schmerzen 121
entspricht 121
notwen@@ 121
dul@@ 121
holz 121
nett 121
internet@@ 121
anwenden 121
architekten 121
sheit 121
four@@ 121
grown 121
besondere 121
generations 121
soviel 121
houses 121
quellen 121
sitz@@ 121
chemistry 121
dinosaurs 121
vorfahren 121
dow 120
flug 120
klär@@ 120
closed 120
nde 120
howard 120
kb 120
gessen 120
entdeckung 120
cape 120
politiker 120
tie 120
associ@@ 120
transi@@ 120
unterricht 120
stammt 120
stoffen 120
regionen 120
bruder 120
mon 120
discipl@@ 120
ox@@ 120
genau@@ 120
26 120
fat 120
konser@@ 120
ug@@ 120
microscop@@ 120
ernä@@ 120
bein@@ 120
thers 120
emerging 120
interaction 120
clip 120
clinical 120
epi@@ 120
element@@ 120
verfügbar 120
fossil 120
issen 120
violent 120
characteri@@ 120
olo@@ 120
bell 120
associated 120
rechen@@ 120
frag@@ 120
percei@@ 120
letters 120
inner@@ 119
life@@ 119
optimis@@ 119
stab@@ 119
wechsel 119
fantastisch 119
saturn 119
woo@@ 119
entertain@@ 119
aufgebaut 119
langwei@@ 119
schuhe 119
witz 119
nötig 119
butt@@ 119
glam@@ 119
spectrum 119
windows 119
dutz@@ 119
disaster 119
perman@@ 119
schlimmer 119
solch 119
key@@ 119
schaden 119
angeneh@@ 119
od 119
messer 119
ville 119
zuschau@@ 119
trinken 119
bestand 119
angeb@@ 119
kts 119
wired 119
rin@@ 119
persönlich 119
kit@@ 119
transplan@@ 119
survi@@ 119
therap@@ 119
leiden@@ 119
bs@@ 119
persönlichen 119
terrori@@ 119
dies@@ 119
bedürf@@ 119
launched 119
department 119
forced 119
bemer@@ 119
chain 119
definieren 119
40@@ 119
mittleren 119
bank@@ 119
rapi@@ 119
heavy 119
wild@@ 119
nas@@ 118
atten 118
technical 118
tch 118
21@@ 118
rates 118
announ@@ 118
wra@@ 118
addition 118
expedi@@ 118
bine 118
nungs@@ 118
verfü@@ 118
pft 118
100,000 118
vergan@@ 118
tiker 118
poor@@ 118
shoul@@ 118
cambridge 118
lock 118
dinosaurier 118
iden@@ 118
equipment 118
married 118
marki@@ 118
resource 118
blatt 118
schrift@@ 118
fie 118
schwä@@ 118
genom 118
grundsätzlich 118
celebra@@ 118
wunder 118
gross@@ 118
dliche 118
potenzi@@ 118
psycho@@ 118
die@@ 118
oning 118
jack 118
aspekt 118
schmu@@ 118
fän@@ 118
begri@@ 118
beweise 118
losing 118
notwendig 118
democratic 118
andre@@ 118
mountains 118
migra@@ 118
sprach@@ 118
nachbarn 118
tles 118
programme 118
städ@@ 118
gul@@ 118
killing 118
molecular 118
leader 118
erscheint 118
feuer@@ 118
ading 118
intellectual 118
mung 118
entschul@@ 118
lec@@ 118
amo@@ 117
galaxie 117
gling 117
rio 117
gerechtigkeit 117
helden 117
cau@@ 117
remote 117
richtungen 117
grandmother 117
verbrachte 117
unabhängig 117
practical 117
korruption 117
massi@@ 117
well@@ 117
dimensionen 117
bestimm@@ 117
northern 117
stil 117
coral 117
straßen@@ 117
taste 117
springen 117
stur@@ 117
trials 117
ille 117
medizinische 117
ersetzen 117
pleasure 117
traditionellen 117
organs 117
alp@@ 117
initiative 117
consequences 117
digkeit 117
movies 117
erkennt 117
bibliothe@@ 117
folgende 117
bende 117
coal 117
ket 117
aku@@ 117
natürlichen 117
daily 117
amin@@ 117
scan 117
steine 117
schmer@@ 117
digitalen 117
sende 117
patri@@ 117
wirtschaftliche 117
toile@@ 117
tili@@ 117
parado@@ 117
galaxien 117
verg@@ 117
ckets 117
verfahren 117
lebenser@@ 117
baute 116
mexiko 116
lee 116
bang 116
contact 116
700 116
buchstab@@ 116
gesp@@ 116
black@@ 116
teeth 116
cour@@ 116
abilities 116
jo 116
roughly 116
sexual 116
homes 116
zerstören 116
avoid 116
bedeuten@@ 116
mikrosk@@ 116
sight 116
git@@ 116
veränder@@ 116
schrän@@ 116
enjo@@ 116
entstanden 116
bereichen 116
swa@@ 116
kindheit 116
advanced 116
aring 116
südafri@@ 116
ize 116
awful 116
surprised 116
restaurants 116
smell 116
angesehen 116
conf@@ 116
diert 116
lem 116
berühr@@ 116
prime 115
usi@@ 115
konkur@@ 115
maga@@ 115
mund 115
makers 115
v-@@ 115
affected 115
vable 115
800 115
simu@@ 115
stac@@ 115
talent 115
account 115
wellen 115
proteins 115
bemü@@ 115
sad 115
setting 115
express 115
users 115
elektrizität 115
schiff 115
condu@@ 115
beschei@@ 115
höre 115
halbe 115
gles 115
teuer 115
stech@@ 115
cultures 115
cially 115
occasi@@ 115
alli@@ 115
spu@@ 115
schau 115
dens 115
kilometers 115
reci@@ 115
krä@@ 115
market@@ 115
überzeu@@ 115
hängen 115
bevölker@@ 115
spielte 115
substan@@ 115
importance 115
erlebt 115
florida 115
euer 115
pf 115
tedx@@ 115
tausenden 115
5.000 115
deter@@ 115
feststellen 115
zir@@ 115
chol@@ 115
grab@@ 115
3,000 115
erter 114
afrikanischen 114
zuge@@ 114
essential 114
pho@@ 114
präsi@@ 114
gö@@ 114
mittler@@ 114
hörten 114
zerstört 114
mo 114
besuchen 114
hinsicht 114
anderth@@ 114
tzu@@ 114
westlichen 114
lux@@ 114
untersucht 114
radik@@ 114
angle 114
reaction 114
leistungs@@ 114
cil 114
studieren 114
lessons 114
soldiers 114
nin@@ 114
zit@@ 114
vermitteln 114
zon@@ 114
controlled 114
selling 114
pacific 114
club 114
müll 114
dealing 114
contain@@ 114
präsentation 114
intuition 114
display 114
ale@@ 114
drück@@ 114
tony 114
hilfs@@ 114
advan@@ 114
infor@@ 114
wire 114
wissenschaften 114
lossen@@ 114
colli@@ 114
viertel 114
inspi@@ 114
gegend 114
accident 114
meaning@@ 114
wine 114
beantworten 114
beschäftigen 114
aufen 114
spen@@ 114
a. 113
fab@@ 113
unds 113
ption 113
horse 113
sey 113
gefallen 113
langer 113
thoughts 113
klo@@ 113
possibilities 113
ologische 113
quasi 113
flas@@ 113
beein@@ 113
papi@@ 113
affec@@ 113
gleichheit 113
streng@@ 113
hero 113
anhand 113
section 113
stood 113
inning 113
weit@@ 113
ermu@@ 113
beobachtet 113
löcher 113
skla@@ 113
kro@@ 113
kaffee 113
hinten 113
müsste 113
jähri@@ 113
honor 113
graphic 113
gemeinden 113
basier@@ 113
beschlossen 113
50@@ 113
mern 113
user 113
wachst@@ 113
hadn 113
ärm@@ 113
gan 113
äs@@ 113
vas@@ 113
prove 113
illness 113
dunkel@@ 113
regular 113
ht@@ 113
relative 113
mäßig 113
alzheimer 113
acci@@ 113
lässi@@ 112
zeitung 112
vorstellungen 112
long-term 112
lehren 112
wahn@@ 112
atmen 112
preg@@ 112
jes@@ 112
lektion 112
teure 112
effectively 112
ut 112
ric 112
null 112
zweck 112
finish 112
onal 112
australia 112
erfindung 112
kehrt 112
motivi@@ 112
analog@@ 112
sets 112
researchers 112
hnung 112
é@@ 112
bby 112
paraly@@ 112
bä@@ 112
molekul@@ 112
ination 112
schme@@ 112
hlte 112
whereas 112
gravity 112
verkehr@@ 112
repar@@ 112
transport 112
aufzubauen 112
charakter 112
konfron@@ 112
underneath 112
vergröß@@ 112
cards 112
protection 112
jähr@@ 112
brücke 112
welchem 112
radical 112
eur@@ 112
jedenfalls 112
empty 112
dir@@ 112
gebeten 112
winden 112
evolution@@ 112
categ@@ 112
wesentlich 112
productive 112
pag@@ 112
property 112
itali@@ 112
bronx 112
sci@@ 112
wähl@@ 112
geschü@@ 112
biot@@ 112
silicon 111
ktes 111
stics 111
orders 111
solved 111
specifically 111
minim@@ 111
pfle@@ 111
afri@@ 111
breath 111
erforsch@@ 111
dunkl@@ 111
verlust 111
cross 111
primi@@ 111
freiwilli@@ 111
statistiken 111
tigte 111
cin 111
maps 111
existi@@ 111
aw@@ 111
arrived 111
ziel@@ 111
intern@@ 111
antibio@@ 111
who@@ 111
online-@@ 111
tanz@@ 111
werken 111
platform 111
metal 111
adult 111
abra@@ 111
ush 111
round 111
block@@ 111
differ@@ 111
strom@@ 111
dots 111
geändert 111
mathematical 111
initi@@ 111
kerl 111
zivilisation 111
clock 111
lasse 111
konflikt 111
ct@@ 111
gall@@ 111
entworfen 111
täu@@ 111
dienst 111
schließ@@ 111
komplex 111
thin@@ 111
suggest 111
seln 111
harv@@ 111
pleas@@ 111
nervous 111
eres 111
rote 111
entdeckte 111
faktoren 111
kapu@@ 111
ssi@@ 111
aming 111
chemikalien 111
wirklichen 111
selten 110
verkehr 110
nutzung 110
ökon@@ 110
any@@ 110
magnetic 110
lediglich 110
steven 110
variety 110
atory 110
berichten 110
mitglieder 110
calling 110
stant 110
nigeri@@ 110
oral 110
spoke 110
requi@@ 110
kreieren 110
civili@@ 110
picked 110
erwähnt 110
presse 110
tot 110
bedürfnisse 110
sation 110
revolution@@ 110
curious 110
saved 110
demand 110
wings 110
biert 110
gramm 110
barri@@ 110
plans 110
orbit 110
stärke 110
sharks 110
zusätz@@ 110
junger 110
sophisti@@ 110
bakteri@@ 110
folie 110
lustig 110
sser 110
saal 110
verab@@ 110
repu@@ 110
zte 110
run@@ 110
magni@@ 110
geor@@ 110
enzy@@ 110
von@@ 110
sugar 110
beweisen 110
woll@@ 110
menschlicher 110
ce-@@ 110
gesundheitswesen 110
franzö@@ 109
skulp@@ 109
genie@@ 109
valuable 109
expan@@ 109
blieb 109
craft 109
existence 109
dile@@ 109
retro@@ 109
fail 109
scene 109
tober 109
singen 109
stellungen 109
wahrschein@@ 109
conduc@@ 109
entsch@@ 109
bein 109
mali@@ 109
gely 109
momente 109
thei@@ 109
sources 109
definitely 109
medikament 109
mad 109
suggest@@ 109
teilneh@@ 109
diet 109
dam 109
kev@@ 109
considered 109
viert 109
fahrt 109
nern 109
stärker 109
erlaub@@ 109
fewer 109
bekannte 109
experienced 109
tsun@@ 109
erstellt 109
zz 109
connections 109
gelen@@ 109
suggests 109
hafte 109
players 108
ri 108
bene@@ 108
method 108
director 108
gps 108
palä@@ 108
effektiv 108
characters 108
toten 108
innere 108
fabrik 108
sett@@ 108
explosion 108
gat@@ 108
verteilt 108
folks 108
relation 108
entwicklungsländern 108
unterrichten 108
distin@@ 108
buying 108
zugänglich 108
fresh 108
grünen 108
operate 108
wirkliche 108
gewe@@ 108
schwierigkeiten 108
kapital 108
evolutionary 108
notes 108
ships 108
blauen 108
radiation 108
goals 108
ight 108
kühl@@ 108
silk 108
verknü@@ 108
hallu@@ 108
nahe@@ 108
dunkle 108
achse 108
target 108
techniques 108
sprü@@ 108
beinahe 108
metho@@ 108
aufbau 108
verdam@@ 108
schlafen 108
invention 108
medien@@ 108
sonder@@ 108
furcht@@ 108
doll@@ 108
gemäl@@ 108
crash 108
verbessert 108
simulation 108
migr@@ 108
dameri@@ 108
unglaublichen 108
architect 108
hiv-@@ 108
relatively 108
teles@@ 108
elimin@@ 108
beispielsweise 108
ter-@@ 107
sin 107
ologischen 107
13@@ 107
herren 107
inf@@ 107
mitarbeiter 107
mama 107
pause 107
llig 107
meer@@ 107
kitchen 107
übrig 107
gesellschaft@@ 107
nik 107
stry 107
aries 107
ressed 107
homo 107
newspaper 107
gefällt 107
rest@@ 107
ib@@ 107
opp@@ 107
blan@@ 107
cab@@ 107
dogs 107
aded 107
increasing 107
müssten 107
require 107
zielen 107
molekül 107
centers 107
internationalen 107
inhalt 107
erkannt 107
agenda 107
smith 107
efficiency 107
computing 107
komple@@ 107
convince 107
authenti@@ 107
rene@@ 107
abhängi@@ 107
photographs 107
eco@@ 107
att@@ 107
dimension 107
geschlagen 107
lifetime 107
credit 107
typically 107
kas 107
axis 107
plays 107
einrichtungen 107
mented 107
mammo@@ 107
perception 107
stable 107
diagramm 107
solange 107
employees 107
sop@@ 107
schluss@@ 106
brian 106
serve 106
scrat@@ 106
schwarzen 106
anteil 106
eff@@ 106
stop@@ 106
pants 106
hie@@ 106
ilfe 106
kampagne 106
filter 106
laboratory 106
durchschnittliche 106
caf@@ 106
insbesondere 106
büchern 106
wärmung 106
mode 106
arly 106
atoms 106
gap 106
chtern 106
epidemic 106
aufregend 106
awareness 106
igkeiten 106
genü@@ 106
prepared 106
geburt@@ 106
grosse 106
ritu@@ 106
teenager 106
tü@@ 106
testing 106
sages 106
bai 106
katastrop@@ 106
swim 106
fail@@ 106
gore 106
webseite 106
explains 106
willst 106
flat 106
gold@@ 106
gla@@ 106
gesichter 106
sides 106
falten 106
diskussion 106
identify 106
haw@@ 106
maßstab 106
ardo 106
deln 106
tale 106
kochen 106
defined 106
mails 106
asse 106
mie@@ 106
seltsam 106
geregt 106
situationen 106
liefer@@ 106
ore@@ 106
ält 106
nützlich 106
earth@@ 105
kompliziert 105
rett@@ 105
nicht@@ 105
artige 105
sour@@ 105
mutter@@ 105
prinzipien 105
clever 105
text@@ 105
autor 105
applied 105
wick@@ 105
decken 105
einiges 105
former 105
marriage 105
osity 105
regul@@ 105
pad 105
ecu@@ 105
peak 105
kran@@ 105
wüste 105
clas@@ 105
dna-@@ 105
lay 105
phr@@ 105
safety 105
sees 105
heißen 105
waff@@ 105
previous 105
fair@@ 105
vorne 105
implan@@ 105
sentence 105
kungen 105
factor 105
vorbei@@ 105
altet 105
linge 105
deutsch@@ 105
jim 105
vorge@@ 105
den-@@ 105
breaking 105
unfall 105
curi@@ 105
lokalen 105
liked 105
tasche 105
fishing 105
grüne 105
erken@@ 105
alterna@@ 105
schöpf@@ 105
schick@@ 105
koll@@ 105
stif@@ 105
u.n. 105
adverti@@ 105
riesen@@ 105
nor 105
reward 105
eindeu@@ 105
piano 105
aled 105
äußerst 105
28 105
represents 105
tlichen 105
para@@ 105
serie 105
wettbewerb 104
ladies 104
ecosystem 104
moralische 104
tert 104
heim 104
21. 104
ander 104
writer 104
tables 104
telefon@@ 104
grau@@ 104
rect 104
geschma@@ 104
verwandelt 104
versteht 104
facing 104
reti@@ 104
empfin@@ 104
satis@@ 104
beziehen 104
artic@@ 104
primary 104
quant@@ 104
sequ@@ 104
verring@@ 104
schnei@@ 104
gegründet 104
matri@@ 104
eastern 104
freundin 104
unts 104
verpflich@@ 104
nachts 104
spin@@ 104
confidence 104
liefern 104
vul@@ 104
villa@@ 104
minister@@ 104
entstand 104
nie@@ 104
glü@@ 104
bizar@@ 104
schaue 104
henry 104
naturally 104
spiegel@@ 104
theme 104
hallo 104
inieren 104
intri@@ 104
risiken 104
zitat 104
var@@ 104
roads 104
engagement 104
fusion 104
häusern 104
großmutter 104
pack 104
vulnerable 104
erwachsenen 104
überqu@@ 104
beweis 104
gewohn@@ 104
style 104
1960 104
konz@@ 104
boundar@@ 104
strahlung 104
personally 104
battery 104
gelebt 104
gesund 104
vog@@ 104
brach 104
tnisse 104
ausmaß 104
arbeitsp@@ 104
sent@@ 104
ost@@ 104
pop 103
verse 103
gment 103
digitale 103
verti@@ 103
introduced 103
visible 103
193@@ 103
gegenwart 103
mechanis@@ 103
frame 103
ipo@@ 103
deeper 103
geräusche 103
resili@@ 103
anpas@@ 103
arr@@ 103
metapher 103
planes 103
stimmung 103
120 103
außen 103
cational 103
burn 103
ier 103
rier 103
hurt 103
govern@@ 103
inje@@ 103
environments 103
gest 103
zahn@@ 103
liquid 103
chemie 103
febru@@ 103
24@@ 103
sektor 103
stärken 103
ks@@ 103
holfen 103
beinhaltet 103
verbrei@@ 103
psychiat@@ 103
national@@ 103
ord 103
may@@ 103
é 103
joe 103
properties 103
verblüff@@ 103
m-@@ 103
bud@@ 103
accept 103
whit@@ 103
exchange 103
rennen 103
males 103
ished 103
jewei@@ 103
breite 103
sinni@@ 103
australien 103
weiße 103
risks 103
tw@@ 103
oxyto@@ 103
mem@@ 102
location 102
battle 102
gering@@ 102
stehe 102
convinced 102
stimul@@ 102
taliban 102
heran@@ 102
vertraut 102
sach@@ 102
interpretation 102
poetry 102
sowas 102
erkenn@@ 102
geber 102
astron@@ 102
senses 102
strength 102
schreibt 102
favor@@ 102
string 102
switch 102
natür@@ 102
sätze 102
sandwi@@ 102
mention 102
ternal 102
tivi@@ 102
zusammenzu@@ 102
strand 102
gravi@@ 102
planet@@ 102
handlungen 102
tane@@ 102
unlike 102
ctor 102
struggle 102
herstellung 102
anal@@ 102
ewi@@ 102
schlägt 102
tains 102
faszin@@ 102
selbe 102
erwachsene 102
85 102
allgemeinen 102
driver 102
appropriate 102
garage 102
schizophren@@ 102
survey 102
films 102
intellektu@@ 102
bogen 102
laptops 102
capture 102
venti@@ 102
hnte 102
behaviors 102
venue 102
orange 102
sitz 102
anlage 102
ames 102
ee@@ 102
schimpansen 102
nive@@ 102
enorme 102
mich@@ 102
processes 102
ims 102
leon@@ 102
beschloss 102
glamour 102
trillion 102
wise 102
kirche 101
wieviel 101
vorzustellen 101
roh@@ 101
banglades@@ 101
replace 101
miner@@ 101
ausgeben 101
üben 101
wondering 101
echtz@@ 101
germany 101
uten 101
click 101
buil@@ 101
broo@@ 101
bucks 101
versu@@ 101
mira@@ 101
emissions 101
hits 101
trage@@ 101
attle 101
analyse 101
open@@ 101
kriege 101
bob 101
frame@@ 101
tour@@ 101
enheit 101
queen 101
liefert 101
stupid 101
lincol@@ 101
brand@@ 101
cooking 101
afrikas 101
kombination 101
hierher 101
raising 101
stin@@ 101
ay@@ 101
of-@@ 101
diszi@@ 101
sty@@ 101
wofür 101
collapse 101
anstelle 101
darstellen 101
roof 101
zeigten 101
exploration 101
requires 101
reiche 101
carrying 101
southern 101
soft@@ 101
spiritu@@ 101
bemerken 101
rollen 101
volk 101
sending 101
mistake 101
rare 101
generally 101
akzeptieren 101
licherweise 101
tries 101
politicians 101
aden 101
resultat 101
songs 101
nose 101
geheimnis 101
vagina 101
za 101
korre@@ 101
präsentieren 101
pilot 100
solcher 100
neh@@ 100
bottle 100
nähr@@ 100
großartigen 100
ek@@ 100
laugh@@ 100
versagen 100
bezüglich 100
schalt@@ 100
schritt@@ 100
pir@@ 100
licen@@ 100
king@@ 100
unusual 100
shark 100
farmer 100
setzten 100
hre 100
untersuchung 100
pazi@@ 100
pool 100
goods 100
rad@@ 100
grid 100
bubble 100
selbstverständlich 100
solving 100
fehlen 100
voraus 100
katastrophe 100
sequenz 100
watched 100
comfort 100
fassung 100
penguins 100
überlegen 100
dinosau@@ 100
kanada 100
willen 100
physiker 100
gemeinsame 100
ertes 100
internationale 100
the-@@ 100
bestand@@ 100
illegal 100
lige 100
u.k. 100
leiter 100
faith 100
received 100
bow@@ 100
strated 100
psychology 100
chimpanze@@ 100
völ@@ 100
crowd 100
sensitive 100
components 100
verteilung 100
ous@@ 100
staf@@ 100
einfaches 100
veränderte 100
ength 100
felder 100
unglaub@@ 100
gebieten 99
änge 99
angiogen@@ 99
ebenen 99
integr@@ 99
inseln 99
spun@@ 99
hol 99
bag 99
milk 99
verbrechen 99
inevi@@ 99
ride 99
pollution 99
exam@@ 99
meetings 99
tax@@ 99
damen 99
bestä@@ 99
derer 99
sustain@@ 99
pulled 99
füllen 99
zusammenge@@ 99
intro@@ 99
arri@@ 99
imple@@ 99
29 99
chtete 99
rb 99
five-@@ 99
cast 99
broke 99
ballo@@ 99
noon 99
geschäf@@ 99
water@@ 99
landen 99
unit 99
sav@@ 99
carefully 99
diesel@@ 99
belast@@ 99
kriegs@@ 99
baseball 99
entfernen 99
watt 99
pfund 99
llan@@ 99
liebte 99
soci@@ 99
ax@@ 99
menschliches 99
gün@@ 99
thin 99
vorhersagen 99
birthday 99
consumer 99
probieren 99
zep@@ 99
stammzellen 99
se-@@ 99
multi-@@ 99
need@@ 99
remin@@ 99
vorhanden 99
ancestors 99
zität 99
telef@@ 99
bene 99
pä@@ 99
fün@@ 99
anwendung 99
ids 99
runs 99
unterhaltung 99
pay@@ 99
versi@@ 99
burning 99
pau@@ 99
musical 99
manufacturing 98
labor@@ 98
aturen 98
lifest@@ 98
grain 98
lan 98
ausstellung 98
vermeiden 98
member 98
mitta@@ 98
tu 98
grundlage 98
aktivitäten 98
hospitals 98
manage 98
copy@@ 98
agt 98
shang@@ 98
collaboration 98
absicht 98
zza 98
momentan 98
heirat@@ 98
stere@@ 98
chungen 98
schönes 98
entrop@@ 98
un 98
legte 98
trennt 98
destruction 98
so-@@ 98
proben 98
court 98
percentage 98
contin@@ 98
bedenken 98
geographic 98
homo@@ 98
lächeln 98
1.000 98
novel 98
dia 98
unterstützt 98
healthcare 98
asing 98
zwischen@@ 98
komment@@ 98
förmi@@ 98
burgh 98
wher@@ 98
temporary 98
gemeinschaften 98
exercise 98
meist 98
mirror 98
speziellen 98
co-@@ 98
input 98
versor@@ 98
ga 98
gerei@@ 98
bewus@@ 98
simpl@@ 98
invasi@@ 98
gover@@ 98
wovon 98
tig@@ 98
ingre@@ 98
tracking 98
discussion 98
verage 98
clay 98
roo@@ 98
hous@@ 97
schnitt@@ 97
remem@@ 97
langfri@@ 97
übernehmen 97
holz@@ 97
mistakes 97
arab 97
jahrzehnt 97
här@@ 97
ridi@@ 97
bart 97
neuron 97
chteten 97
brazil 97
halb@@ 97
you@@ 97
grafik 97
apri@@ 97
macher 97
cutting 97
umfeld 97
annahme 97
resear@@ 97
2011 97
ffer 97
oles@@ 97
restri@@ 97
treat@@ 97
counter 97
common@@ 97
schrecklich 97
weis 97
interests 97
sungen 97
empathy 97
veter@@ 97
verwir@@ 97
umines@@ 97
schwa@@ 97
behavi@@ 97
psychop@@ 97
usch 97
w. 97
moment@@ 97
golden 97
six@@ 97
xide 97
verbreitung 97
gigan@@ 97
finger@@ 97
sms 97
mlich 97
hollywood 97
predat@@ 97
stol@@ 97
wheel@@ 97
ethi@@ 97
erweitern 97
mush@@ 97
darunter 97
stück@@ 97
phän@@ 97
austr@@ 96
weih@@ 96
tious 96
genu@@ 96
sue 96
verne@@ 96
situations 96
ual 96
schwarz@@ 96
story@@ 96
still@@ 96
sprecher 96
schriften 96
comple@@ 96
schauten 96
kore@@ 96
taucht 96
susta@@ 96
mana@@ 96
urban@@ 96
arily 95
richt@@ 95
gent 95
tats@@ 95
uss@@ 95
begei@@ 95
atur@@ 95
beobach@@ 95
tribu@@ 95
dered 95
phenomen@@ 95
thr@@ 95
seits 95
caus@@ 95
ye 95
deci@@ 95
amerikan@@ 94
signi@@ 94
verantwor@@ 94
ktoren 94
risi@@ 94
trum 94
chst 93
danken 93
bec@@ 93
zent@@ 93
tual 93
entwick@@ 92
q 92
sst 92
thou@@ 92
alt@@ 92
revol@@ 92
ress 92
zivili@@ 92
zufä@@ 92
haup@@ 91
intelli@@ 91
tube 91
jahrhunder@@ 91
confli@@ 91
assen 91
competi@@ 91
vil@@ 91
kill@@ 91
fascin@@ 91
unger 90
ener@@ 90
stamm@@ 90
simil@@ 90
mary 90
allen@@ 90
gendes 90
unterschei@@ 90
mmt 89
tra 89
wart 89
gesund@@ 89
kümm@@ 89
increas@@ 89
w-@@ 89
stati@@ 89
zel@@ 89
ada@@ 89
vehi@@ 89
verstän@@ 89
use@@ 88
lossen 88
zusä@@ 88
abor@@ 88
mam@@ 88
denten 88
b. 88
foc@@ 88
taus@@ 88
mou@@ 88
popul@@ 88
benu@@ 88
tech@@ 87
success@@ 87
less@@ 87
duced 87
gil@@ 87
zwe@@ 87
discus@@ 86
fang 86
soft 86
sons 86
gefäng@@ 86
transforma@@ 86
gangen 86
curr@@ 86
vermei@@ 86
certain@@ 86
iting 86
urspr@@ 86
spür@@ 85
afgh@@ 85
grü@@ 85
flei@@ 85
add@@ 85
aster 85
beha@@ 85
elec@@ 85
mir@@ 85
strug@@ 85
diff@@ 85
troffen 85
spru@@ 85
beding@@ 85
entrepr@@ 84
bewusst@@ 84
compon@@ 84
sud@@ 84
konta@@ 84
bacteri@@ 84
nachzu@@ 84
phot@@ 84
scop@@ 84
stern@@ 84
schre@@ 84
grafi@@ 84
präsen@@ 83
partment 83
dür@@ 83
interessi@@ 83
hood 83
neur@@ 83
mean@@ 82
hall@@ 82
nö@@ 82
turen 82
inde@@ 82
schir@@ 82
öffent@@ 82
year-@@ 81
requ@@ 81
hlen@@ 81
maß 81
das@@ 81
bür@@ 81
espe@@ 81
fic@@ 80
manufac@@ 80
absol@@ 80
glau@@ 80
theor@@ 80
citi@@ 80
justi@@ 80
kation 80
eil 79
dacht 79
great@@ 79
bieren 79
samkeit 79
dama@@ 79
crea@@ 79
verfüg@@ 79
vy 79
hus@@ 79
umin@@ 79
turing 79
prepar@@ 78
mitt@@ 78
surpris@@ 78
alo@@ 78
partic@@ 77
benö@@ 77
mexi@@ 77
amei@@ 77
unterstü@@ 77
metaph@@ 77
commun@@ 77
fam@@ 77
seri@@ 76
strat@@ 76
masch@@ 76
bak@@ 76
ind 76
archite@@ 76
vulner@@ 76
schlüs@@ 76
py@@ 76
rän@@ 76
medikam@@ 75
erwachsen@@ 75
usual 75
profess@@ 75
dol@@ 75
follo@@ 75
distri@@ 75
nien 74
collap@@ 74
überra@@ 74
vered 74
what@@ 74
zö@@ 74
proper@@ 74
ve-@@ 74
zations 74
commer@@ 74
mmer 74
indepen@@ 73
spee@@ 73
gehir@@ 73
aly@@ 73
rem 73
viol@@ 73
tude 73
interest@@ 73
ually 73
gebur@@ 72
agri@@ 72
ston 72
eping 72
aufmerk@@ 72
herauszu@@ 72
quot@@ 72
krat@@ 72
… 72
sth@@ 71
á@@ 71
ernähr@@ 71
hm@@ 71
schön@@ 71
pan 71
+ 71
coll@@ 71
häufi@@ 71
abhän@@ 70
gery 70
ameri@@ 70
zusam@@ 70
mäd@@ 70
asse@@ 70
disc@@ 70
aper 70
wettbewer@@ 70
oms 70
foun@@ 70
ama 70
long-@@ 70
gelö@@ 69
manu@@ 69
dere 69
pie@@ 69
eth 69
stan 69
kir@@ 69
nia 69
tely 69
abo@@ 69
architek@@ 69
ira@@ 69
fic 69
stly 69
brilli@@ 68
zens 68
relev@@ 68
muse@@ 68
stors 68
perspe@@ 68
oud 68
deep@@ 68
dow@@ 68
vels 68
phen@@ 67
gir@@ 67
grupp@@ 67
jä@@ 67
genan@@ 67
nahr@@ 67
dings 67
weal@@ 67
näch@@ 67
blich 66
sugge@@ 66
keiten 66
einfa@@ 66
tery 66
wesent@@ 66
trou@@ 66
mous 66
lieder 66
zau@@ 66
verhäl@@ 66
fortunately 65
fs@@ 65
rely 65
spie@@ 65
tempor@@ 65
imp@@ 65
wirkungen 65
listen@@ 65
bub@@ 65
ance@@ 64
alia 64
ause 64
ond 64
ttle 64
geg@@ 64
möglich@@ 64
lap@@ 64
ghter 64
expen@@ 64
ision 64
alls 63
soll@@ 63
class@@ 63
bili@@ 63
zahlt 63
unterschied@@ 63
collea@@ 63
questi@@ 63
dnis 63
astrop@@ 63
num@@ 63
stim@@ 62
democra@@ 62
moun@@ 62
hing@@ 62
nee@@ 62
tsam 62
ires 62
enced 62
umgeb@@ 62
richti@@ 62
kräf@@ 62
consci@@ 61
confi@@ 61
goog@@ 61
let@@ 61
ire 61
danger@@ 61
mor 61
präsent@@ 61
dation 61
fot@@ 61
with@@ 60
evi@@ 60
mathema@@ 60
kind@@ 60
rs 60
infra@@ 60
pon 60
vag@@ 59
libr@@ 59
mption 59
halten@@ 59
ony@@ 59
event@@ 59
konzent@@ 59
sauer@@ 59
gle 58
schirm 58
boun@@ 58
cise 58
com 58
erfahr@@ 58
immedi@@ 58
ings@@ 58
mote 58
kilome@@ 58
ban 58
neighbor@@ 58
grundsä@@ 57
verursa@@ 57
condi@@ 57
beh@@ 57
world@@ 57
poe@@ 57
ices 57
transp@@ 57
eben@@ 57
einflus@@ 57
molekü@@ 57
decisi@@ 57
recy@@ 57
engine@@ 57
hori@@ 57
choo@@ 56
ghtly 56
bile 56
pollu@@ 56
medic@@ 56
ergeb@@ 56
diskus@@ 56
expe@@ 56
vil 56
kör@@ 56
paki@@ 55
ap 55
traff@@ 55
zwi@@ 55
diffic@@ 55
tex 55
kürz@@ 55
bang@@ 55
cei@@ 55
exist@@ 54
rul@@ 54
› 54
liebl@@ 54
geräu@@ 54
ital 54
‹ 54
sug@@ 54
pid 54
eness 54
ross 54
atmosp@@ 53
won@@ 53
fiel@@ 53
eing 53
keit 53
jenigen 53
ollywood 53
einfl@@ 53
inging 52
internation@@ 52
satur@@ 52
konfer@@ 52
iness 52
strahl@@ 52
experi@@ 52
pedia 52
asy 52
kehr 52
rying 52
bron@@ 52
pengu@@ 51
.. 51
ada 51
signific@@ 51
zept 51
know@@ 51
mers 51
midd@@ 51
psy@@ 51
iety 50
tötet 50
clear@@ 50
erkan@@ 50
ersta@@ 50
fundam@@ 50
teach@@ 50
vel 50
vent 50
carb@@ 50
valu@@ 49
protot@@ 49
cess@@ 49
doc@@ 49
k. 49
chur@@ 49
zusagen 49
valent 49
busin@@ 49
cum@@ 48
strateg@@ 48
beten 48
übri@@ 48
oly@@ 48
seem@@ 48
utes 48
tty 48
inier@@ 48
vereinig@@ 48
verbin@@ 48
photogra@@ 48
wirt@@ 48
ktu@@ 47
read@@ 47
vey 47
phic 47
concern@@ 47
gründet 47
peop@@ 47
zar@@ 47
chtigkeit 47
zy 47
strate@@ 47
zugän@@ 46
prac@@ 46
landscap@@ 46
rais@@ 46
oze@@ 46
campaig@@ 46
face@@ 46
stab 46
abili@@ 46
wett@@ 46
environ@@ 46
eting 45
verhalten@@ 45
extrem@@ 45
stud@@ 45
wiki@@ 45
avo@@ 45
machin@@ 45
knowle@@ 45
° 45
eri@@ 45
män@@ 44
spea@@ 44
wahrneh@@ 44
big@@ 44
gala@@ 44
soldi@@ 44
fashi@@ 44
dnung 44
cient 44
previ@@ 44
earli@@ 43
rieb 43
remark@@ 43
symp@@ 43
ih@@ 43
there@@ 43
vide@@ 42
vorhan@@ 42
verständlich 42
bibli@@ 42
gä@@ 42
inven@@ 42
omen@@ 42
cogni@@ 42
prise 42
öhn@@ 42
geneh@@ 41
dit 41
tioned 41
oce@@ 41
selves 41
absolu@@ 41
ques 41
soc@@ 41
cris@@ 40
sup@@ 40
auton@@ 40
) 40
cess 40
pers@@ 39
beauti@@ 39
lik@@ 39
anno@@ 39
forschen 39
kunde 39
agieren 39
equi@@ 39
tali@@ 39
sands 38
milliar@@ 38
britan@@ 38
vili@@ 38
storben 38
ficial 38
dden 38
mber 38
ring@@ 38
genheit 37
geschwindi@@ 37
gues 37
ermög@@ 37
ange 37
hri@@ 37
pathy 37
princi@@ 37
rät@@ 36
publik@@ 36
osau@@ 36
sequences 36
famili@@ 36
figh@@ 36
yel@@ 36
terr@@ 36
deb@@ 36
beeinflus@@ 35
scienti@@ 35
interess@@ 35
adul@@ 35
scap@@ 35
intelle@@ 35
rd 35
quick@@ 35
häus@@ 35
iti 35
aum 35
att 34
convin@@ 34
exer@@ 34
call@@ 34
stert 34
appropri@@ 34
xic@@ 34
plö@@ 34
vid 34
mittl@@ 34
performan@@ 34
teili@@ 34
anthro@@ 34
responsi@@ 34
grow@@ 33
karri@@ 33
kle 33
beispiel@@ 33
= 33
mög@@ 33
½ 33
itely 32
dab@@ 32
hindern 32
gespro@@ 32
fft 32
schimpan@@ 32
fically 32
tish 32
kay 31
ó@@ 31
malari@@ 31
issu@@ 31
actu@@ 31
unity 31
euro@@ 31
hmen@@ 31
pian@@ 31
ehen 31
suc@@ 31
anim@@ 31
base@@ 31
them@@ 31
volun@@ 31
ctly 30
effici@@ 30
hospit@@ 30
through@@ 30
zeitig 30
perfor@@ 30
gebra@@ 30
oxy@@ 30
² 30
erweise 29
diab@@ 29
sear@@ 29
olly@@ 29
engl@@ 29
kalifor@@ 29
electri@@ 29
easi@@ 29
gebie@@ 29
herausforder@@ 29
bilities 29
chers 28
@ 28
trilli@@ 28
passion@@ 28
notic@@ 28
milit@@ 28
brazi@@ 28
tops 28
hren@@ 28
ousness 28
him@@ 28
ultima@@ 28
dee@@ 28
zine 28
child@@ 28
hundre@@ 28
í@@ 27
americ@@ 27
erzä@@ 27
resour@@ 27
onnen 27
other@@ 27
è@@ 27
verän@@ 27
pagne 27
gement 27
mathe@@ 27
meth@@ 27
psychi@@ 27
inte@@ 27
marke@@ 27
aufgab@@ 27
phar@@ 26
bevölk@@ 26
verbra@@ 26
simp@@ 26
kratie 26
nst 26
ould 26
wech@@ 26
verblü@@ 26
energ@@ 26
angi@@ 25
entde@@ 25
shou@@ 25
affe@@ 25
capac@@ 25
‟ 25
isla@@ 25
situ@@ 24
maj@@ 24
restau@@ 24
großbritan@@ 24
alg@@ 24
accor@@ 24
geschie@@ 24
stero@@ 24
presi@@ 23
ressour@@ 23
effec@@ 23
fasz@@ 23
grou@@ 23
eicht 23
ske@@ 23
chro@@ 23
til 23
feed@@ 23
bezieh@@ 23
marri@@ 23
jem@@ 23
tol@@ 23
bedingt 23
schieden 23
deca@@ 23
schied 23
jour@@ 23
tality 23
lieb 22
tremend@@ 22
prinzipi@@ 22
ough@@ 22
cals 22
wichtig@@ 22
awar@@ 22
funden 22
flori@@ 22
socie@@ 22
intellec@@ 22
ogen@@ 22
entfer@@ 22
ächlich 21
safe@@ 21
# 21
‚ 21
haupt 21
geschw@@ 21
employe@@ 21
xt 21
kalien 21
wus@@ 21
rant 21
benef@@ 21
gesell@@ 21
haupts@@ 20
mista@@ 20
elektri@@ 20
ests 20
patter@@ 20
beinhal@@ 20
straß@@ 20
vail@@ 20
avail@@ 20
europe@@ 20
.b. 19
dafri@@ 19
ruption 19
ult 19
rhy@@ 19
( 19
zeital@@ 19
fert 19
abli@@ 19
nerv@@ 18
künf@@ 18
schizop@@ 18
för@@ 18
n. 18
foreig@@ 18
bess@@ 18
birth@@ 17
natu@@ 17
tea@@ 17
solu@@ 17
professi@@ 17
agen 17
β@@ 17
etz 17
wies@@ 17
complic@@ 17
comfort@@ 16
geria 16
efully 16
mole@@ 16
‒ 16
dn 16
fren@@ 16
ith 16
seit@@ 16
ñ@@ 16
ihr@@ 16
leist@@ 16
sophi@@ 16
job@@ 15
ungefä@@ 15
cule 15
à 15
posite 15
your@@ 15
where@@ 15
sep@@ 15
diag@@ 15
instit@@ 15
gni@@ 15
intu@@ 15
onlin@@ 14
pflich@@ 14
afghani@@ 14
famil@@ 14
gem@@ 14
ote 14
bestim@@ 14
astern 14
ü 13
rough@@ 13
pover@@ 13
^ 13
weapon@@ 13
mosp@@ 13
häre 13
fahr 13
autom@@ 13
europ@@ 13
invisi@@ 13
dimen@@ 13
erwei@@ 13
relation@@ 13
thom@@ 12
exac@@ 12
norm@@ 12
paci@@ 12
det@@ 12
beau@@ 12
letzten@@ 12
stom@@ 12
fäng@@ 12
auß@@ 11
bedür@@ 11
curity 11
rami@@ 11
reme@@ 11
quas@@ 11
unser@@ 11
versums 11
dise@@ 10
cisco 10
gegent@@ 10
telev@@ 10
ã@@ 10
mexic@@ 10
geschaff@@ 10
manhat@@ 10
chir@@ 10
galaxi@@ 10
destru@@ 10
movi@@ 10
ç@@ 10
emo@@ 10
gyp@@ 9
falt 9
müs@@ 9
ttel 9
two@@ 9
na-@@ 9
chic@@ 9
minde@@ 9
zumin@@ 8
í 8
alzhei@@ 8
züglich 8
ê@@ 8
califor@@ 8
micha@@ 8
ernsth@@ 8
cept 8
aga@@ 8
stead 8
entre@@ 8
_ 8
compan@@ 8
health@@ 7
lebe@@ 7
percent@@ 7
prinzi@@ 7
slow@@ 7
osop@@ 7
expon@@ 7
vices 7
buchstä@@ 7
raid 7
onder@@ 7
irgen@@ 7
pment 7
zeugt 7
galax@@ 7
 7
trotz@@ 6
feel@@ 6
ement@@ 6
ully 6
zop@@ 6
mend@@ 6
tice 6
amera 6
äume 6
viron@@ 6
kog@@ 6
* 6
ó 6
ween 6
degre@@ 5
 5
garti@@ 5
econ@@ 5
opport@@ 5
intel@@ 5
viell@@ 5
 5
elek@@ 5
industr@@ 5
silic@@ 5
langu@@ 5
etes 5
inst 5
ø@@ 5
ution@@ 5
â@@ 5
¥ 5
vertr@@ 4
` 4
ernt 4
ö 4
 4
chmal 4
อ@@ 4
pite 4
beson@@ 4
zhei@@ 4
flä@@ 4
gespi@@ 4
ā@@ 4
othe@@ 4
ück 4
fore 4
ú@@ 4
disci@@ 4
­ 4
ä 3
ô@@ 3
yester@@ 3
washing@@ 3
³ 3
smit@@ 3
kens@@ 3
× 3
orith@@ 3
â 3
verbess@@ 3
happen@@ 3
 3
possi@@ 3
eler@@ 3
£ 3
liqu@@ 3
every@@ 3
œ@@ 3
 3
¼ 3
β 3
incredi@@ 3
toge@@ 3
goti@@ 3
began@@ 3
complex@@ 3
ï@@ 2
meet@@ 2
ร 2
bey@@ 2
bekan@@ 2
richt 2
送@@ 2
你@@ 2
hund@@ 2
ë@@ 2
indivi@@ 2
è 2
dership 2
\ 2
casi@@ 2
bras@@ 2
葱 2
hosp@@ 2
å@@ 2
© 2
erlau@@ 2
€ 2
beina@@ 2
่ 2
`@@ 2
effi@@ 1
ō@@ 1
î@@ 1
ă@@ 1
à@@ 1
rants 1
charac@@ 1
¾ 1
denly 1
irgendet@@ 1
к@@ 1
niem@@ 1
ย@@ 1
windo@@ 1
® 1
perha@@ 1
childr@@ 1
jeden@@ 1
š@@ 1
ӓ@@ 1
， 1
ć 1
ë 1
á 1
unities 1
ť 1
obvi@@ 1
ย 1
﻿ 1
import@@ 1
paig@@ 1
ý@@ 1
ē 1
ffee 1
esn 1
devel@@ 1
madeupword0000 0
madeupword0001 0
madeupword0002 0
madeupword0003 0
